unsigned char model_data[] = {
  0x20, 0x00, 0x00, 0x00, 0x54, 0x46, 0x4c, 0x33, 0x00, 0x00, 0x00, 0x00,
  0x14, 0x00, 0x20, 0x00, 0x1c, 0x00, 0x18, 0x00, 0x14, 0x00, 0x10, 0x00,
  0x0c, 0x00, 0x00, 0x00, 0x08, 0x00, 0x04, 0x00, 0x14, 0x00, 0x00, 0x00,
  0x1c, 0x00, 0x00, 0x00, 0x1c, 0x00, 0x00, 0x00, 0x4c, 0x00, 0x00, 0x00,
  0xe0, 0x39, 0x00, 0x00, 0xf0, 0x39, 0x00, 0x00, 0x18, 0x46, 0x00, 0x00,
  0x03, 0x00, 0x00, 0x00, 0x00, 0x00, 0x00, 0x00, 0x01, 0x00, 0x00, 0x00,
  0x0c, 0x00, 0x00, 0x00, 0x08, 0x00, 0x0c, 0x00, 0x08, 0x00, 0x04, 0x00,
  0x08, 0x00, 0x00, 0x00, 0x0e, 0x00, 0x00, 0x00, 0x04, 0x00, 0x00, 0x00,
  0x13, 0x00, 0x00, 0x00, 0x6d, 0x69, 0x6e, 0x5f, 0x72, 0x75, 0x6e, 0x74,
  0x69, 0x6d, 0x65, 0x5f, 0x76, 0x65, 0x72, 0x73, 0x69, 0x6f, 0x6e, 0x00,
  0x0f, 0x00, 0x00, 0x00, 0x90, 0x39, 0x00, 0x00, 0x88, 0x39, 0x00, 0x00,
  0x70, 0x39, 0x00, 0x00, 0x60, 0x21, 0x00, 0x00, 0x30, 0x21, 0x00, 0x00,
  0x20, 0x01, 0x00, 0x00, 0xd0, 0x00, 0x00, 0x00, 0x70, 0x00, 0x00, 0x00,
  0x4c, 0x00, 0x00, 0x00, 0x44, 0x00, 0x00, 0x00, 0x3c, 0x00, 0x00, 0x00,
  0x34, 0x00, 0x00, 0x00, 0x2c, 0x00, 0x00, 0x00, 0x24, 0x00, 0x00, 0x00,
  0x04, 0x00, 0x00, 0x00, 0x26, 0xc6, 0xff, 0xff, 0x04, 0x00, 0x00, 0x00,
  0x10, 0x00, 0x00, 0x00, 0x31, 0x2e, 0x31, 0x34, 0x2e, 0x30, 0x00, 0x00,
  0x00, 0x00, 0x00, 0x00, 0x00, 0x00, 0x00, 0x00, 0x60, 0xbb, 0xff, 0xff,
  0x64, 0xbb, 0xff, 0xff, 0x68, 0xbb, 0xff, 0xff, 0x6c, 0xbb, 0xff, 0xff,
  0x70, 0xbb, 0xff, 0xff, 0x56, 0xc6, 0xff, 0xff, 0x04, 0x00, 0x00, 0x00,
  0x14, 0x00, 0x00, 0x00, 0x45, 0x02, 0x00, 0x00, 0x9b, 0x03, 0x00, 0x00,
  0xdd, 0xfd, 0xff, 0xff, 0xa0, 0x02, 0x00, 0x00, 0xc1, 0xfa, 0xff, 0xff,
  0x76, 0xc6, 0xff, 0xff, 0x04, 0x00, 0x00, 0x00, 0x50, 0x00, 0x00, 0x00,
  0x22, 0x0f, 0x08, 0xd6, 0xb7, 0xe5, 0x1a, 0xbb, 0xd5, 0x0a, 0x27, 0xcf,
  0x00, 0x08, 0x19, 0xc3, 0xc2, 0x81, 0x16, 0x2e, 0x18, 0x1f, 0xbe, 0xb3,
  0xc1, 0x21, 0xbd, 0xe2, 0xc3, 0x13, 0xd9, 0xfa, 0x19, 0xee, 0xbe, 0x16,
  0x12, 0x19, 0x1a, 0x13, 0xd9, 0x0f, 0xc4, 0xc1, 0xd2, 0xd9, 0x16, 0x22,
  0xbc, 0xe4, 0x14, 0xef, 0xcf, 0xd3, 0xbf, 0x0d, 0x1c, 0x09, 0x0f, 0x11,
  0x1f, 0x0e, 0xc2, 0xd2, 0x0e, 0x09, 0xde, 0xea, 0x0c, 0xf7, 0x19, 0x1c,
  0x15, 0xad, 0x14, 0x07, 0x18, 0xbf, 0xe1, 0x1a, 0xd2, 0xc6, 0xff, 0xff,
  0x04, 0x00, 0x00, 0x00, 0x40, 0x00, 0x00, 0x00, 0x0d, 0x04, 0x00, 0x00,
  0xd5, 0x00, 0x00, 0x00, 0x28, 0xf8, 0xff, 0xff, 0x8b, 0xdf, 0xff, 0xff,
  0xea, 0xe8, 0xff, 0xff, 0x43, 0xe8, 0xff, 0xff, 0xa9, 0xfe, 0xff, 0xff,
  0x35, 0xe6, 0xff, 0xff, 0x5f, 0xe7, 0xff, 0xff, 0xed, 0xf5, 0xff, 0xff,
  0x11, 0x03, 0x00, 0x00, 0xa3, 0xe7, 0xff, 0xff, 0x1b, 0xf9, 0xff, 0xff,
  0x06, 0xf6, 0xff, 0xff, 0x53, 0x0c, 0x00, 0x00, 0xc4, 0xf2, 0xff, 0xff,
  0x1e, 0xc7, 0xff, 0xff, 0x04, 0x00, 0x00, 0x00, 0x00, 0x20, 0x00, 0x00,
  0x0b, 0x0e, 0x03, 0xf0, 0x01, 0x7f, 0xf0, 0xfa, 0x07, 0x1d, 0x02, 0xf6,
  0x08, 0x3e, 0xfb, 0xfd, 0xfe, 0x16, 0x04, 0xf8, 0xfa, 0x63, 0x07, 0xf1,
  0x0a, 0x17, 0xf5, 0xef, 0x05, 0x47, 0x01, 0xf2, 0x04, 0x14, 0xf9, 0xf4,
  0xfc, 0x68, 0x02, 0xf5, 0x06, 0x10, 0x00, 0xf3, 0x08, 0x63, 0xfe, 0xe4,
  0x01, 0x16, 0x04, 0xf8, 0x0b, 0x68, 0x09, 0xe9, 0x04, 0x11, 0x05, 0xef,
  0x07, 0x69, 0x0a, 0xe2, 0x0c, 0x21, 0x08, 0xdb, 0x04, 0x57, 0xe4, 0xfd,
  0x16, 0x15, 0x0b, 0xe7, 0x0c, 0x4d, 0xf4, 0xf1, 0x05, 0x14, 0x0e, 0xe9,
  0xfb, 0x44, 0xfb, 0xfc, 0x14, 0x0b, 0x07, 0xe3, 0x10, 0x5c, 0xfa, 0x13,
  0x0c, 0x02, 0x07, 0xe8, 0x03, 0x4e, 0xfe, 0xf4, 0x12, 0xf5, 0x09, 0xd5,
  0x13, 0x53, 0xf7, 0xfb, 0x16, 0x18, 0x15, 0xef, 0x0d, 0x5a, 0xf3, 0xd4,
  0x14, 0x16, 0x19, 0xf2, 0x0e, 0x68, 0x07, 0xf2, 0x13, 0x12, 0x0e, 0xdb,
  0xfb, 0x22, 0xd4, 0xf3, 0x15, 0x14, 0x09, 0xdb, 0x0b, 0x22, 0xe3, 0xee,
  0x17, 0xfa, 0x02, 0xe0, 0xfa, 0x18, 0xe0, 0xec, 0x18, 0x12, 0x0f, 0xe9,
  0x02, 0xfa, 0xda, 0xef, 0x1e, 0x15, 0x03, 0xdd, 0x01, 0x1f, 0xe6, 0xef,
  0x17, 0x14, 0x0d, 0xd2, 0x0a, 0x2d, 0xe1, 0xe5, 0x12, 0x04, 0x09, 0xe2,
  0x0a, 0x35, 0xeb, 0xe2, 0x17, 0x0d, 0x08, 0xe6, 0x0b, 0x5c, 0xe9, 0xe1,
  0x21, 0xf0, 0x14, 0xc5, 0x05, 0x3c, 0xc3, 0xeb, 0x2c, 0x02, 0x12, 0xca,
  0x0c, 0x3c, 0xdd, 0xe2, 0x21, 0x05, 0x0e, 0xdb, 0xfa, 0x32, 0xd7, 0xeb,
  0x22, 0xff, 0x0d, 0xe1, 0x01, 0x4a, 0xe6, 0xed, 0x26, 0x06, 0x09, 0xdc,
  0xfd, 0x2d, 0xc1, 0xd5, 0x23, 0xf4, 0x0d, 0xd4, 0x0d, 0x68, 0xdb, 0xd6,
  0x30, 0x0a, 0x02, 0xdb, 0x0d, 0x62, 0xdb, 0xd0, 0x17, 0x0f, 0x1d, 0xe2,
  0x0f, 0x74, 0xf0, 0xfd, 0x10, 0xf5, 0x00, 0xce, 0x02, 0x26, 0xb6, 0xd9,
  0x1c, 0xff, 0x0e, 0xd6, 0x01, 0x06, 0xb7, 0xdd, 0x26, 0xed, 0xff, 0xde,
  0xff, 0x19, 0xbf, 0xdd, 0x2b, 0xfa, 0x03, 0xd2, 0x03, 0x11, 0xc2, 0xcc,
  0x23, 0x00, 0xff, 0xcb, 0x06, 0x1d, 0xc4, 0xdb, 0x2a, 0x03, 0x07, 0xda,
  0x02, 0x4c, 0xc4, 0xd6, 0x20, 0xfd, 0x09, 0xd5, 0x07, 0x52, 0xcf, 0xe2,
  0x1b, 0x08, 0xfb, 0xd9, 0xff, 0x5f, 0xe9, 0xff, 0x15, 0xf8, 0x0e, 0xd0,
  0xff, 0x14, 0xb4, 0xf7, 0x26, 0x00, 0x0e, 0xcd, 0x05, 0x2e, 0xdc, 0xea,
  0x1c, 0x0f, 0x0f, 0xdf, 0xf7, 0x2c, 0xcb, 0xf9, 0x29, 0xfe, 0x0d, 0xdd,
  0xf9, 0x48, 0xe7, 0xec, 0x25, 0x08, 0x07, 0xdc, 0xf9, 0x2f, 0xc9, 0xeb,
  0x2a, 0x01, 0x0c, 0xd9, 0x07, 0x30, 0xe0, 0xe7, 0x29, 0x03, 0xfa, 0xd3,
  0x05, 0x38, 0xea, 0xe5, 0x19, 0x05, 0x14, 0xdc, 0x0b, 0x79, 0xf8, 0x04,
  0x18, 0xfa, 0x04, 0xc1, 0xf7, 0x1c, 0xa6, 0xd1, 0x1e, 0xfb, 0x0e, 0xc6,
  0xf9, 0x22, 0xb3, 0xd4, 0x21, 0xf6, 0x15, 0xcb, 0xf9, 0x14, 0xca, 0xc7,
  0x26, 0x03, 0x00, 0xcd, 0xf9, 0x14, 0xa5, 0xde, 0x22, 0xe9, 0x08, 0xcd,
  0xf9, 0x06, 0xc4, 0xee, 0x1d, 0x11, 0x05, 0xd2, 0xfd, 0x27, 0xba, 0x08,
  0x25, 0xec, 0x06, 0xcc, 0x03, 0x12, 0xd1, 0xe8, 0x1c, 0x05, 0xfe, 0xd5,
  0x01, 0x60, 0xe3, 0xff, 0x29, 0x1a, 0x0d, 0xc8, 0xff, 0xfe, 0x9a, 0xf9,
  0x28, 0x18, 0x0f, 0xcb, 0x01, 0x1d, 0xb4, 0xdd, 0x23, 0x04, 0x13, 0xdb,
  0xf6, 0xfc, 0xb2, 0xf6, 0x31, 0x04, 0x05, 0xe0, 0xfd, 0x27, 0xbd, 0x07,
  0x23, 0x0c, 0x0e, 0xe0, 0xf7, 0xfb, 0xb7, 0xf9, 0x27, 0x02, 0x00, 0xe4,
  0x02, 0x1f, 0xc3, 0xf9, 0x27, 0xf7, 0xfc, 0xe0, 0xff, 0xe1, 0xd6, 0xe9,
  0x1b, 0x14, 0xfb, 0xe1, 0x03, 0x3c, 0xdc, 0x09, 0x02, 0xf8, 0xef, 0xe4,
  0x1d, 0x7f, 0x10, 0x14, 0xff, 0xf0, 0xe8, 0xf4, 0x0c, 0x4f, 0x06, 0x11,
  0xf3, 0xd7, 0xf1, 0xf6, 0x05, 0x41, 0x0a, 0x0d, 0x00, 0xcf, 0xf2, 0xfe,
  0x0e, 0x25, 0xfc, 0x09, 0xf2, 0xb5, 0xff, 0xfe, 0x0c, 0x38, 0x02, 0x07,
  0xf6, 0xb9, 0xfe, 0x0d, 0x13, 0x37, 0x05, 0x09, 0xea, 0xb5, 0x03, 0x11,
  0x13, 0x4c, 0x00, 0x07, 0xf9, 0xda, 0x00, 0x0f, 0xfe, 0x54, 0xfd, 0x00,
  0xf7, 0xff, 0xfb, 0xee, 0x1b, 0x63, 0xfe, 0x0d, 0x00, 0xdd, 0xf5, 0xeb,
  0x0b, 0x37, 0x0e, 0xf2, 0x03, 0xbd, 0xff, 0xfa, 0x03, 0x27, 0x00, 0xf7,
  0x02, 0xba, 0xf3, 0xf8, 0x11, 0x19, 0xf9, 0xf9, 0x03, 0xaf, 0xf8, 0x04,
  0x11, 0x13, 0xef, 0xed, 0x08, 0xb0, 0x03, 0xfe, 0x13, 0x1c, 0xf9, 0x05,
  0x00, 0xb3, 0x04, 0x09, 0x08, 0x29, 0xf9, 0xed, 0x01, 0xb9, 0x09, 0x0a,
  0x0a, 0x39, 0xeb, 0xf2, 0x0b, 0xf7, 0xfd, 0xdd, 0x07, 0x2e, 0xef, 0xf7,
  0x11, 0xee, 0xfd, 0xf7, 0x09, 0x21, 0xf0, 0x05, 0x16, 0xce, 0x05, 0xef,
  0xfc, 0x14, 0xef, 0xf2, 0x1c, 0xd6, 0x05, 0xfc, 0x0d, 0xee, 0xe4, 0xff,
  0x25, 0xc6, 0x02, 0xfe, 0x08, 0x06, 0xcf, 0xf2, 0x27, 0xdc, 0x08, 0x06,
  0x10, 0x0a, 0xe1, 0xf2, 0x0a, 0xce, 0x0e, 0x09, 0x08, 0x1f, 0xdf, 0xf1,
  0x11, 0xee, 0x09, 0x0b, 0x07, 0x41, 0xe2, 0xf5, 0x07, 0xec, 0x01, 0xda,
  0x06, 0x4d, 0xde, 0x0e, 0x06, 0xcb, 0xf4, 0xe7, 0x00, 0x33, 0xef, 0x06,
  0x00, 0xd5, 0x0c, 0xfb, 0xfd, 0x1c, 0xe7, 0x11, 0x06, 0xcb, 0x05, 0xf5,
  0x07, 0x1e, 0xcc, 0xf4, 0x09, 0xcc, 0x05, 0xf9, 0xfd, 0x16, 0xc0, 0x04,
  0x1f, 0xc8, 0x0e, 0xf6, 0x08, 0x1e, 0xca, 0xfd, 0x0d, 0xc6, 0x00, 0x06,
  0x02, 0x2d, 0xdb, 0xf6, 0x13, 0xda, 0x0b, 0xfc, 0x04, 0x5a, 0xe8, 0x00,
  0x07, 0xf6, 0xf0, 0xdd, 0x06, 0x44, 0xd8, 0x12, 0x08, 0xfa, 0x05, 0xed,
  0x09, 0x42, 0xc8, 0x10, 0x0e, 0xdf, 0x01, 0x01, 0x05, 0x22, 0xcf, 0xfb,
  0x10, 0xde, 0x02, 0xfc, 0x04, 0x1d, 0xb3, 0x00, 0x12, 0xdb, 0xfd, 0x00,
  0x04, 0x2a, 0xb7, 0xea, 0x14, 0xe2, 0x04, 0x03, 0x00, 0x16, 0xca, 0xf6,
  0x0c, 0xe0, 0x02, 0xfe, 0x04, 0x33, 0xd3, 0x09, 0x0b, 0xe7, 0x03, 0x06,
  0xf8, 0x5c, 0xf9, 0xee, 0x04, 0xfb, 0xfd, 0xe0, 0xff, 0x43, 0xd4, 0x25,
  0x09, 0xe3, 0xf8, 0xe5, 0x01, 0x39, 0xe8, 0x0a, 0x04, 0xdd, 0xfd, 0xfd,
  0xfc, 0x18, 0xe1, 0x08, 0x13, 0xd0, 0x04, 0xfb, 0xfc, 0x12, 0xca, 0xfe,
  0x0b, 0xd5, 0xfb, 0xfe, 0xfd, 0x13, 0xc1, 0x05, 0x1e, 0xd3, 0x02, 0xf6,
  0x0b, 0x19, 0xe3, 0x05, 0x0b, 0xd1, 0xf3, 0xfa, 0xf9, 0x19, 0xf4, 0x01,
  0x0e, 0xdc, 0x00, 0xf3, 0x02, 0x44, 0x02, 0xfb, 0x06, 0x00, 0x01, 0xda,
  0x0b, 0x3c, 0xcc, 0x1c, 0x13, 0xf2, 0x05, 0xe1, 0x10, 0x29, 0xd5, 0x0e,
  0x17, 0xe4, 0xfd, 0xf3, 0x02, 0x23, 0xcb, 0xfe, 0x0d, 0xe2, 0x04, 0xf1,
  0x02, 0x2a, 0xc5, 0x04, 0x0b, 0xd5, 0xfa, 0xf7, 0x02, 0x14, 0xc1, 0xf6,
  0x14, 0xd5, 0xff, 0xfe, 0x03, 0x3a, 0xd4, 0x03, 0x15, 0xd7, 0xf4, 0xf5,
  0x01, 0x27, 0xec, 0xef, 0x0c, 0xdc, 0xff, 0xf6, 0xf9, 0x4e, 0xf2, 0xe8,
  0x09, 0xee, 0x00, 0xd5, 0x06, 0x4a, 0xcb, 0x13, 0x0c, 0xee, 0x01, 0xee,
  0x0a, 0x48, 0xd7, 0x03, 0x0e, 0xf5, 0x06, 0xfd, 0xff, 0x3d, 0xd6, 0x07,
  0x14, 0xd6, 0x09, 0xf8, 0xff, 0x3e, 0xc8, 0xfc, 0x0e, 0xd6, 0xfe, 0xfa,
  0xfb, 0x25, 0xd5, 0xf3, 0x0f, 0xd0, 0xfc, 0xfa, 0xfd, 0x34, 0xd6, 0x02,
  0x07, 0xce, 0xfb, 0xfa, 0xfb, 0x32, 0xf5, 0xf5, 0x05, 0xe0, 0xf8, 0xf8,
  0x00, 0x4a, 0xee, 0xe5, 0xee, 0xbd, 0x04, 0x07, 0xfc, 0xf6, 0xff, 0xe5,
  0xea, 0xc4, 0x15, 0x30, 0x04, 0xee, 0xf7, 0xe0, 0x00, 0xea, 0x17, 0x40,
  0x07, 0xe7, 0xf2, 0xe3, 0x01, 0xf3, 0x0e, 0x27, 0xff, 0xd6, 0xf3, 0xe9,
  0x03, 0xdc, 0x20, 0x3b, 0x05, 0xda, 0xf9, 0xec, 0x11, 0xe9, 0x1e, 0x20,
  0x02, 0xcf, 0x00, 0x02, 0x0a, 0xf6, 0x10, 0x3b, 0x05, 0xd6, 0x04, 0x03,
  0x18, 0x05, 0x18, 0x6c, 0xff, 0xc5, 0x0f, 0xf1, 0xed, 0xc3, 0x03, 0x17,
  0x07, 0x05, 0x19, 0xe0, 0x03, 0xc2, 0x13, 0x41, 0x0e, 0xee, 0x04, 0xd4,
  0xfb, 0xd1, 0x0a, 0x3e, 0x0c, 0xe8, 0x03, 0xe6, 0x08, 0xf5, 0x14, 0x4d,
  0x10, 0xd9, 0xfa, 0xeb, 0x0d, 0xe3, 0x06, 0x3d, 0x09, 0xe8, 0x02, 0xf8,
  0x00, 0xf3, 0x09, 0x37, 0x07, 0xe6, 0x05, 0xf5, 0x0a, 0xe4, 0x02, 0x24,
  0x04, 0xd9, 0x0e, 0x08, 0xfd, 0xef, 0xff, 0x5d, 0x05, 0xd0, 0x0f, 0xfd,
  0xff, 0xd2, 0x08, 0x26, 0x00, 0x18, 0x1e, 0xdd, 0x09, 0xba, 0x0e, 0x3e,
  0xfb, 0x05, 0x21, 0xde, 0x0f, 0xe0, 0x0d, 0x43, 0x06, 0x00, 0x0c, 0xe0,
  0x0e, 0xef, 0x07, 0x41, 0x04, 0x01, 0x0b, 0xee, 0x0c, 0xe7, 0x08, 0x3f,
  0x00, 0xed, 0x0c, 0xe9, 0x12, 0xec, 0x00, 0x16, 0xfc, 0xe0, 0x20, 0xfa,
  0x03, 0xf4, 0x00, 0x34, 0xff, 0xe5, 0x19, 0xff, 0x10, 0xf4, 0xfd, 0x62,
  0xf7, 0xd4, 0x2d, 0xf9, 0xf9, 0xd0, 0xf1, 0x2e, 0x00, 0x03, 0x13, 0xdb,
  0x08, 0xba, 0xf6, 0x4d, 0x0b, 0x00, 0x13, 0xd1, 0x01, 0xcd, 0xf9, 0x47,
  0xfe, 0x00, 0x0d, 0xe9, 0x0c, 0xd8, 0xf4, 0x48, 0x05, 0xf6, 0xfc, 0xe2,
  0x05, 0xdc, 0xf0, 0x50, 0xf9, 0xfa, 0x01, 0xee, 0xfd, 0xd9, 0xff, 0x52,
  0xf8, 0xf1, 0x0b, 0xe9, 0x05, 0xe1, 0xe8, 0x52, 0xf7, 0xea, 0x13, 0xff,
  0xfb, 0xe1, 0xf6, 0x69, 0xfc, 0xe3, 0x1d, 0xf1, 0xff, 0xd0, 0xfc, 0x3c,
  0x06, 0x14, 0x21, 0xea, 0x03, 0xbe, 0xfd, 0x2e, 0x00, 0x0b, 0x10, 0xda,
  0x00, 0xd0, 0xf9, 0x5b, 0x08, 0x08, 0x0b, 0xde, 0x04, 0xd8, 0xed, 0x55,
  0xf2, 0x0c, 0x02, 0xe5, 0xfa, 0xe2, 0xea, 0x4d, 0xf9, 0xf2, 0x02, 0xe9,
  0xf1, 0xc6, 0xf4, 0x3a, 0xeb, 0xf4, 0x20, 0xe9, 0xf1, 0xd1, 0xf3, 0x64,
  0xf7, 0xea, 0x1f, 0xf4, 0xf1, 0xdf, 0xea, 0x7e, 0xe9, 0xe0, 0x20, 0xe6,
  0x02, 0xd4, 0xf3, 0x19, 0x00, 0x03, 0x22, 0xe6, 0xfd, 0xd9, 0xf8, 0x1d,
  0x0a, 0xfb, 0x17, 0xda, 0x0b, 0xd5, 0xf1, 0x33, 0xfe, 0xfd, 0x16, 0xe6,
  0x06, 0xd6, 0xee, 0x37, 0x07, 0xf6, 0x11, 0xeb, 0xf9, 0xd8, 0xf4, 0x3d,
  0xf5, 0xf3, 0x13, 0xee, 0xfb, 0xcf, 0xf9, 0x35, 0xf2, 0xf2, 0x16, 0xea,
  0xfd, 0xd4, 0xf5, 0x5a, 0xf5, 0xe5, 0x1a, 0xf9, 0xec, 0xe4, 0xed, 0x72,
  0xfe, 0xde, 0x1c, 0xf1, 0x08, 0xd2, 0xf4, 0x13, 0x00, 0xfc, 0x2d, 0xdf,
  0x10, 0xd8, 0xf3, 0xfe, 0xff, 0xfd, 0x22, 0xcd, 0x0b, 0xd7, 0xf2, 0x45,
  0xf9, 0x03, 0x2a, 0xd5, 0x0d, 0xd9, 0xf5, 0x3b, 0xfb, 0xff, 0x1a, 0xe6,
  0x04, 0xe8, 0xf6, 0x43, 0xfd, 0xf8, 0x1e, 0xe3, 0xf8, 0xc7, 0xfa, 0x33,
  0xf6, 0xf7, 0x1e, 0xef, 0xf7, 0xd9, 0xf5, 0x6c, 0xff, 0xe5, 0x18, 0xec,
  0xee, 0xd9, 0xf8, 0x7f, 0xf4, 0xed, 0x1a, 0xe4, 0xfd, 0xea, 0xe5, 0x0c,
  0x00, 0x00, 0x30, 0xea, 0xfd, 0xf3, 0xfe, 0xe8, 0x04, 0xf6, 0x33, 0xd5,
  0x0e, 0xe4, 0xe0, 0x07, 0xf6, 0xfb, 0x3b, 0xf2, 0x01, 0xe7, 0xfd, 0x2f,
  0x07, 0xf6, 0x27, 0xe7, 0xfe, 0xe8, 0xeb, 0x2e, 0xfb, 0xf4, 0x29, 0xef,
  0xfe, 0xd9, 0xfb, 0x2d, 0x02, 0xf7, 0x25, 0xeb, 0xf6, 0xe0, 0xe8, 0x53,
  0xfc, 0xf0, 0x2b, 0xf5, 0xed, 0xd2, 0xea, 0x7d, 0x04, 0xf2, 0x2e, 0xec,
  0x02, 0x5b, 0x4b, 0xfa, 0xd6, 0xff, 0x3f, 0xf7, 0xf6, 0x1f, 0x2b, 0xf6,
  0xda, 0x07, 0x30, 0x11, 0xfd, 0x50, 0x4a, 0xfb, 0xd6, 0x10, 0x23, 0x21,
  0xf4, 0x38, 0x35, 0xf7, 0xd6, 0x23, 0x27, 0x11, 0xfd, 0x7e, 0x4b, 0x07,
  0xd1, 0x1b, 0x10, 0x17, 0xf6, 0x63, 0x42, 0xfc, 0xe1, 0x09, 0x21, 0x1d,
  0xf4, 0x7f, 0x65, 0x17, 0xde, 0xeb, 0x1f, 0x28, 0xfb, 0x6d, 0x52, 0x3f,
  0xe5, 0xe2, 0x1f, 0x3f, 0xfb, 0x39, 0x37, 0xf8, 0xce, 0xf6, 0x2f, 0x06,
  0x07, 0x16, 0x38, 0x04, 0xda, 0x03, 0x23, 0x1c, 0xfd, 0x45, 0x1e, 0xf5,
  0xe0, 0x03, 0x16, 0x15, 0xff, 0x32, 0x32, 0xfb, 0xda, 0x22, 0x0a, 0x13,
  0x01, 0x65, 0x2b, 0xff, 0xd0, 0x04, 0xf7, 0x15, 0x00, 0x46, 0x33, 0x05,
  0xd9, 0x08, 0x1c, 0x0e, 0xfa, 0x4a, 0x38, 0x04, 0xdd, 0xf9, 0x08, 0x1b,
  0xf6, 0x3c, 0x2b, 0x15, 0xd9, 0xdc, 0x23, 0x2e, 0xfa, 0x47, 0x20, 0x04,
  0xdb, 0xe2, 0x38, 0x21, 0xf0, 0x1d, 0x1e, 0x0d, 0xe4, 0xf6, 0x26, 0x20,
  0x0b, 0x39, 0x18, 0xf1, 0xe0, 0xf0, 0x1a, 0x25, 0xf3, 0x33, 0x19, 0x01,
  0xd9, 0x0f, 0x13, 0x19, 0xfc, 0x50, 0x2d, 0x09, 0xda, 0x0d, 0x0f, 0x25,
  0xf9, 0x45, 0x34, 0x06, 0xe3, 0xfe, 0x23, 0x18, 0xfd, 0x4d, 0x4d, 0x13,
  0xe6, 0xe5, 0x2d, 0x22, 0xef, 0x57, 0x1e, 0x12, 0xee, 0xcb, 0x36, 0x40,
  0x05, 0x39, 0x31, 0x05, 0xdf, 0xdf, 0x2a, 0x19, 0xff, 0x08, 0x22, 0x10,
  0xe4, 0xde, 0x1c, 0x2b, 0x0f, 0x35, 0x1e, 0x03, 0xeb, 0xf1, 0x15, 0x28,
  0x06, 0x23, 0x1d, 0x0b, 0xdd, 0xff, 0x14, 0x12, 0x1e, 0x47, 0x2f, 0x0d,
  0xdd, 0xfe, 0xfe, 0x28, 0x05, 0x48, 0x1b, 0x0d, 0xdf, 0xeb, 0x1f, 0x25,
  0x13, 0x39, 0x38, 0x17, 0xde, 0xe2, 0x0a, 0x2c, 0x0a, 0x3d, 0x20, 0x0d,
  0xe2, 0xcf, 0x20, 0x3a, 0x00, 0x27, 0x2d, 0xfe, 0xde, 0xd1, 0x3a, 0x17,
  0x00, 0x21, 0x10, 0x07, 0xec, 0xe3, 0x31, 0x25, 0x0e, 0x2b, 0x1e, 0x06,
  0xe3, 0xde, 0x0f, 0x29, 0x0b, 0x34, 0x0f, 0xfd, 0xe3, 0xe8, 0x19, 0x1b,
  0x20, 0x45, 0x34, 0x0a, 0xe6, 0xd9, 0xf9, 0x17, 0x0a, 0x3e, 0x24, 0x00,
  0xe7, 0xd4, 0x1b, 0x1f, 0x0f, 0x58, 0x2a, 0x0c, 0xea, 0xc8, 0x1b, 0x2a,
  0x04, 0x5e, 0x22, 0xff, 0xf2, 0xdd, 0x20, 0x2d, 0x08, 0x12, 0x19, 0xf7,
  0xdd, 0xed, 0x45, 0x10, 0xfe, 0x22, 0x13, 0x02, 0xe5, 0xef, 0x2b, 0x21,
  0x19, 0x2f, 0x1b, 0x01, 0xed, 0xee, 0x1a, 0x26, 0xfd, 0x40, 0x21, 0x08,
  0xea, 0xe9, 0x11, 0x1d, 0x25, 0x54, 0x2a, 0xfe, 0xe3, 0xe6, 0x0b, 0x18,
  0x05, 0x4b, 0x1b, 0xf7, 0xeb, 0xe5, 0x13, 0x1f, 0x16, 0x46, 0x37, 0x06,
  0xe4, 0xdf, 0x04, 0x2b, 0x10, 0x6f, 0x13, 0xfc, 0xea, 0xd6, 0x2b, 0x29,
  0xfb, 0x3c, 0x1f, 0xf6, 0xe2, 0xe6, 0x4d, 0x12, 0x01, 0x1f, 0x15, 0xf9,
  0xef, 0xe2, 0x39, 0x18, 0x14, 0x46, 0x23, 0xf2, 0xe8, 0xde, 0x1b, 0x25,
  0x08, 0x4b, 0x1b, 0xf3, 0xed, 0xe8, 0x2d, 0x16, 0x0c, 0x48, 0x36, 0xfe,
  0xdf, 0xda, 0x0d, 0x28, 0xfe, 0x69, 0x1d, 0x00, 0xf6, 0xda, 0x2b, 0x1d,
  0x12, 0x52, 0x31, 0xfc, 0xe2, 0xc8, 0x23, 0x1d, 0x00, 0x5b, 0x1e, 0x03,
  0xf9, 0xc8, 0x37, 0x3a, 0x07, 0x34, 0x1e, 0xf6, 0xe8, 0xf4, 0x4d, 0x17,
  0xfd, 0x32, 0x30, 0xec, 0xed, 0xf3, 0x44, 0x1f, 0x13, 0x4e, 0x2c, 0xe0,
  0xf0, 0xf0, 0x2e, 0x20, 0x07, 0x5b, 0x2e, 0xf1, 0xee, 0xf2, 0x2e, 0x23,
  0x15, 0x68, 0x31, 0xf4, 0xf3, 0xe3, 0x24, 0x24, 0x06, 0x53, 0x2b, 0xeb,
  0xfd, 0xdc, 0x30, 0x30, 0x1d, 0x5d, 0x26, 0xf4, 0xfb, 0xca, 0x2b, 0x34,
  0x0a, 0x6e, 0x23, 0xed, 0xf9, 0xd9, 0x44, 0x45, 0x0d, 0x54, 0x0f, 0xd2,
  0xf9, 0x27, 0x1c, 0x5d, 0xf2, 0x32, 0x0e, 0xc8, 0xf0, 0x17, 0x13, 0x53,
  0xff, 0x27, 0x21, 0xd5, 0xec, 0x1a, 0x19, 0x11, 0xfc, 0x20, 0x09, 0xe5,
  0xe8, 0x13, 0x05, 0x1b, 0xef, 0x3e, 0x11, 0xfa, 0xf4, 0x0c, 0x05, 0x0a,
  0xf7, 0x42, 0x19, 0xee, 0xf2, 0xfb, 0x00, 0x20, 0xf2, 0x42, 0x32, 0x07,
  0xf2, 0xf8, 0x10, 0x0f, 0xef, 0x41, 0x18, 0x13, 0xf0, 0xf6, 0x07, 0x3a,
  0xe9, 0x45, 0x18, 0xd1, 0x01, 0x2a, 0x17, 0x5d, 0xf6, 0x1e, 0x13, 0xd2,
  0xf6, 0x12, 0x19, 0x2e, 0xf2, 0x2e, 0x1e, 0xd7, 0xef, 0x0e, 0x11, 0x00,
  0xf3, 0x1e, 0x1e, 0xe3, 0xf4, 0x10, 0xf6, 0x15, 0xf7, 0x32, 0x21, 0xe4,
  0xee, 0x0b, 0xf2, 0xf5, 0xef, 0x3e, 0x1b, 0xfb, 0xf1, 0xfd, 0x0f, 0x0c,
  0xfd, 0x53, 0x19, 0xec, 0xed, 0x05, 0xfe, 0x0d, 0xf5, 0x4b, 0x19, 0x01,
  0xed, 0xef, 0x0b, 0x20, 0xff, 0x45, 0x0f, 0xe2, 0xf1, 0x03, 0x16, 0x7f,
  0xf5, 0x25, 0x0b, 0xc9, 0xe7, 0x0c, 0x18, 0x68, 0x02, 0x15, 0x15, 0xe2,
  0xed, 0x0b, 0x0c, 0x24, 0xf6, 0x2a, 0x1c, 0xe4, 0xeb, 0x11, 0x09, 0x36,
  0x03, 0x41, 0x13, 0xfe, 0xef, 0xfd, 0x0e, 0x2d, 0xf1, 0x38, 0x28, 0xf0,
  0xf1, 0xf9, 0x18, 0x2c, 0xfb, 0x38, 0x11, 0xf9, 0xee, 0xf1, 0x18, 0x11,
  0xf9, 0x47, 0x1a, 0xf6, 0xef, 0xed, 0x0a, 0x30, 0xe9, 0x4a, 0x25, 0xdf,
  0xff, 0x18, 0x1f, 0x71, 0xf9, 0x1b, 0x19, 0xec, 0xf6, 0x0a, 0x13, 0x5e,
  0xf8, 0x37, 0x17, 0xd0, 0xef, 0x12, 0x03, 0x26, 0x04, 0x19, 0x1b, 0xe7,
  0xee, 0xfe, 0x08, 0x37, 0xfc, 0x44, 0x19, 0xe9, 0xea, 0xfe, 0x02, 0x26,
  0xf9, 0x3e, 0x0f, 0xe8, 0xe6, 0xf6, 0x0f, 0x24, 0xf9, 0x4e, 0x1b, 0xec,
  0xe4, 0xf1, 0x0d, 0x12, 0xff, 0x42, 0x11, 0xf9, 0xec, 0xe8, 0x10, 0x15,
  0xf8, 0x3d, 0x0e, 0xf3, 0xf5, 0x06, 0x20, 0x7d, 0xf7, 0x33, 0x0f, 0xe8,
  0xf4, 0x05, 0x23, 0x59, 0x07, 0x29, 0x17, 0xed, 0xf1, 0x03, 0x12, 0x2f,
  0x00, 0x32, 0x18, 0xee, 0xf0, 0x00, 0x14, 0x40, 0xfe, 0x36, 0x12, 0xeb,
  0xec, 0xf2, 0x0c, 0x28, 0xff, 0x3a, 0x25, 0xea, 0xf4, 0xf6, 0x1b, 0x2f,
  0xfb, 0x45, 0x19, 0xf7, 0xf2, 0xe0, 0x18, 0x1d, 0x03, 0x47, 0x16, 0xf9,
  0xf1, 0xeb, 0x14, 0x2f, 0xf8, 0x37, 0x18, 0xed, 0xff, 0x15, 0x22, 0x65,
  0xff, 0x1f, 0x1c, 0xf4, 0xf8, 0x0f, 0x20, 0x4c, 0xfa, 0x2b, 0x19, 0xe9,
  0xf5, 0x10, 0x1a, 0x32, 0x03, 0x3e, 0x11, 0xf5, 0xfa, 0xf2, 0x0f, 0x2b,
  0x00, 0x37, 0x10, 0xf4, 0xee, 0xef, 0xfe, 0x29, 0xfe, 0x46, 0x03, 0x00,
  0xee, 0xed, 0x1b, 0x2d, 0xff, 0x35, 0x13, 0xf3, 0xec, 0xe9, 0x08, 0x14,
  0x07, 0x58, 0x0d, 0xfc, 0xee, 0xdc, 0x1d, 0x25, 0x02, 0x11, 0x01, 0xf7,
  0xfb, 0x0c, 0x24, 0x6d, 0xf3, 0x25, 0x02, 0xf5, 0xfb, 0xfb, 0x18, 0x50,
  0x05, 0x32, 0x1a, 0xf0, 0xee, 0x01, 0x18, 0x28, 0x02, 0x29, 0x13, 0x06,
  0xf7, 0x00, 0x1f, 0x3e, 0x01, 0x2b, 0x08, 0xf7, 0xf2, 0xf2, 0x0d, 0x26,
  0x01, 0x36, 0x17, 0xfa, 0xfb, 0xf4, 0x25, 0x34, 0x03, 0x39, 0x16, 0xf5,
  0xec, 0xf5, 0x1d, 0x18, 0x04, 0x0e, 0x10, 0x00, 0xf5, 0xe3, 0x19, 0x23,
  0xf2, 0x02, 0x0f, 0xf2, 0x0b, 0x0e, 0x1b, 0x66, 0xee, 0x03, 0x10, 0xf4,
  0x01, 0x14, 0x24, 0x50, 0xfa, 0x0d, 0x10, 0xe7, 0xf9, 0x0c, 0x20, 0x32,
  0x05, 0x06, 0x0e, 0xf3, 0xfe, 0x03, 0x1a, 0x27, 0xf6, 0x15, 0x08, 0xf5,
  0xef, 0xf9, 0x1a, 0x23, 0xfb, 0x09, 0x0b, 0xf2, 0x01, 0x02, 0x22, 0x2f,
  0xf7, 0x26, 0x11, 0xf7, 0xfb, 0xda, 0x1a, 0x17, 0x06, 0x27, 0x05, 0xf0,
  0xf2, 0xde, 0x25, 0x31, 0xf6, 0x79, 0x37, 0xfb, 0xe0, 0x09, 0x21, 0x0e,
  0xf6, 0x3b, 0x35, 0x03, 0xdb, 0x08, 0x15, 0x14, 0x05, 0x46, 0x3e, 0x00,
  0xdc, 0x24, 0x1a, 0x10, 0xf8, 0x50, 0x34, 0xf1, 0xd9, 0x19, 0x12, 0x0b,
  0x00, 0x53, 0x34, 0x03, 0xe2, 0x0c, 0x0c, 0xfd, 0xfc, 0x42, 0x32, 0xfb,
  0xde, 0x12, 0x0e, 0x10, 0xfa, 0x44, 0x3c, 0x08, 0xe6, 0x08, 0x08, 0x15,
  0xfb, 0x49, 0x48, 0x0b, 0xe3, 0x07, 0x12, 0x39, 0x02, 0x7f, 0x35, 0x00,
  0xe5, 0xf2, 0x15, 0x23, 0x00, 0x4e, 0x23, 0xff, 0xe2, 0x0f, 0x16, 0x21,
  0x04, 0x45, 0x2b, 0xf8, 0xe3, 0x07, 0x0f, 0x0d, 0x03, 0x33, 0x2c, 0xff,
  0xe1, 0x08, 0x05, 0x1b, 0x06, 0x4b, 0x20, 0xfc, 0xdb, 0x1a, 0xfb, 0x00,
  0x07, 0x4a, 0x27, 0xfe, 0xe4, 0x10, 0x0a, 0x0c, 0x05, 0x61, 0x2d, 0xf8,
  0xea, 0xfc, 0xf2, 0x1a, 0xfe, 0x67, 0x22, 0x05, 0xe8, 0xff, 0x0d, 0x30,
  0x04, 0x62, 0x1d, 0x08, 0xe0, 0xe8, 0x19, 0x2b, 0xfa, 0x3c, 0x22, 0x06,
  0xe6, 0xf3, 0x18, 0x2c, 0xfd, 0x37, 0x24, 0xf1, 0xe1, 0xff, 0x0a, 0x1a,
  0xfe, 0x2c, 0x1b, 0xf8, 0xe5, 0x03, 0x08, 0x1e, 0xfe, 0x43, 0x25, 0xff,
  0xe1, 0x02, 0x05, 0x0e, 0xf9, 0x44, 0x2c, 0xff, 0xf3, 0xfb, 0x08, 0x16,
  0xfd, 0x36, 0x28, 0x04, 0xe6, 0xf9, 0x07, 0x16, 0xfe, 0x50, 0x1d, 0xf1,
  0xee, 0xed, 0x04, 0x31, 0x0d, 0x5f, 0x34, 0xff, 0xec, 0xd6, 0x18, 0x27,
  0x0b, 0x41, 0x1f, 0x02, 0xe8, 0xf6, 0x16, 0x2f, 0x11, 0x4f, 0x1e, 0xe8,
  0xe9, 0xf3, 0x02, 0x24, 0x0b, 0x31, 0x1d, 0xf4, 0xe8, 0xfd, 0x0c, 0x1d,
  0x0f, 0x4a, 0x24, 0xf9, 0xe9, 0xfa, 0x05, 0x02, 0x0a, 0x42, 0x10, 0xfa,
  0xe7, 0xf8, 0x13, 0x11, 0x11, 0x5c, 0x2e, 0xf8, 0xec, 0xee, 0xf5, 0x17,
  0x06, 0x57, 0x1a, 0xf2, 0xec, 0xfd, 0x0e, 0x23, 0x19, 0x5c, 0x19, 0x07,
  0xea, 0xe5, 0x20, 0x24, 0x0f, 0x50, 0x1e, 0x07, 0xe5, 0xe1, 0x1e, 0x28,
  0x0b, 0x48, 0x1a, 0xe9, 0xed, 0xef, 0x0e, 0x1b, 0x16, 0x45, 0x17, 0xf2,
  0xf0, 0xeb, 0x15, 0x19, 0x02, 0x44, 0x20, 0xf6, 0xe9, 0xf6, 0x0c, 0x0a,
  0x05, 0x46, 0x1f, 0xf4, 0xee, 0xdc, 0x17, 0x18, 0x03, 0x44, 0x1e, 0xf9,
  0xf6, 0xe7, 0x0c, 0x0d, 0x01, 0x5d, 0x1e, 0xf5, 0xec, 0xe7, 0x01, 0x32,
  0x11, 0x6c, 0x23, 0xf6, 0xe8, 0xfa, 0x29, 0x2b, 0x0b, 0x4d, 0x0d, 0xfa,
  0xe5, 0xf5, 0x26, 0x22, 0x11, 0x53, 0x1b, 0xed, 0xed, 0xf4, 0x1c, 0x1d,
  0x0a, 0x57, 0x19, 0xea, 0xec, 0xfa, 0x12, 0x0e, 0x1a, 0x60, 0x1b, 0xf2,
  0xec, 0xf5, 0x04, 0x06, 0x09, 0x4d, 0x0f, 0xef, 0xf1, 0xfa, 0x18, 0x10,
  0x0a, 0x63, 0x24, 0xf9, 0xec, 0xe9, 0x02, 0x0c, 0x0a, 0x6a, 0x03, 0xf6,
  0xed, 0xf8, 0x06, 0x1e, 0x0c, 0x79, 0x1d, 0xfa, 0xeb, 0xea, 0x28, 0x15,
  0x07, 0x54, 0x13, 0x00, 0xf6, 0xef, 0x1f, 0x23, 0x0a, 0x51, 0x1d, 0xf3,
  0xef, 0xee, 0x1c, 0x16, 0x04, 0x4c, 0x1b, 0xfe, 0xf1, 0xea, 0x20, 0x0b,
  0x03, 0x50, 0x17, 0xf2, 0xe8, 0xff, 0x17, 0x05, 0x05, 0x6a, 0x1e, 0xfd,
  0xed, 0xdf, 0x1b, 0x09, 0xf8, 0x57, 0x18, 0xf5, 0xf0, 0xe9, 0x0d, 0x0d,
  0x01, 0x68, 0x29, 0x03, 0xf4, 0xe5, 0x10, 0x1b, 0x08, 0x5e, 0x25, 0xf4,
  0xf3, 0xf3, 0x1d, 0x2f, 0x0d, 0x4c, 0x25, 0xfe, 0xf3, 0x01, 0x1e, 0x27,
  0x14, 0x4b, 0x30, 0xe9, 0xfc, 0xf2, 0x13, 0x23, 0x07, 0x4c, 0x29, 0xef,
  0xf5, 0x03, 0x14, 0x1a, 0x11, 0x4e, 0x1e, 0xf7, 0xf3, 0xee, 0x14, 0x0f,
  0x0d, 0x6a, 0x22, 0xe8, 0xf0, 0xfe, 0x21, 0x1c, 0x13, 0x60, 0x28, 0xfd,
  0xf9, 0xe9, 0x09, 0x1f, 0x07, 0x5b, 0x14, 0xf0, 0xf5, 0xf0, 0x0e, 0x1e,
  0x10, 0xf9, 0x02, 0xd7, 0x00, 0x7f, 0xfc, 0x08, 0xfc, 0x2a, 0xf7, 0xe6,
  0xfd, 0x62, 0x0a, 0x11, 0xfc, 0x0b, 0xf7, 0xd3, 0x01, 0x67, 0x0b, 0x0f,
  0x0d, 0x1a, 0xf9, 0xd5, 0x01, 0x52, 0x05, 0x10, 0x04, 0x13, 0xee, 0xd9,
  0xff, 0x6b, 0x0a, 0xf2, 0x07, 0x1c, 0x03, 0xe3, 0x0c, 0x69, 0x02, 0x00,
  0x0c, 0x19, 0x09, 0xef, 0x03, 0x6a, 0x10, 0x05, 0xff, 0x1d, 0x02, 0xf2,
  0x0a, 0x73, 0x07, 0x07, 0x0b, 0x0a, 0xff, 0xe5, 0xf5, 0x4d, 0xdb, 0xf7,
  0x0d, 0x14, 0x08, 0xd8, 0x05, 0x50, 0xfa, 0xf6, 0x06, 0x0a, 0x10, 0xda,
  0x05, 0x47, 0xf5, 0xf3, 0x0b, 0x12, 0xfd, 0xc3, 0x07, 0x4a, 0xef, 0x03,
  0x0e, 0x08, 0x02, 0xd3, 0x12, 0x4b, 0xf2, 0xf5, 0x1d, 0xff, 0x0a, 0xd6,
  0x0e, 0x51, 0xe7, 0x04, 0x14, 0x17, 0x0c, 0xe1, 0x0c, 0x48, 0xf5, 0xf2,
  0x16, 0x06, 0x21, 0xeb, 0x11, 0x65, 0x02, 0x1c, 0x0d, 0x10, 0x0e, 0xcb,
  0xfb, 0x3b, 0xd6, 0x0a, 0x11, 0x25, 0x10, 0xcf, 0x02, 0x2e, 0xe0, 0x1c,
  0x1f, 0x0d, 0x11, 0xce, 0x03, 0x24, 0xe8, 0x13, 0x1c, 0x2a, 0x08, 0xc9,
  0x06, 0x09, 0xdf, 0x1d, 0x1a, 0x0b, 0x0c, 0xaf, 0x08, 0x25, 0xd9, 0x05,
  0x16, 0x1c, 0x06, 0xc2, 0x11, 0x2c, 0xe0, 0x05, 0x1c, 0x04, 0x18, 0xcf,
  0x07, 0x4a, 0xe9, 0x07, 0x1a, 0x24, 0x0c, 0xd4, 0x09, 0x4b, 0xfb, 0x0a,
  0x1d, 0x0b, 0x1c, 0xc2, 0xf2, 0x37, 0xbf, 0x1c, 0x1f, 0x18, 0x1c, 0xbc,
  0xf9, 0x41, 0xd7, 0x07, 0x1f, 0x21, 0x18, 0xc8, 0xf8, 0x36, 0xd5, 0x10,
  0x1f, 0x1c, 0x06, 0xc1, 0xfc, 0x2b, 0xda, 0x01, 0x1e, 0x1a, 0x09, 0xba,
  0x0a, 0x58, 0xd8, 0xfd, 0x2a, 0x1a, 0x0e, 0xbc, 0x09, 0x45, 0xcf, 0xff,
  0x2b, 0x05, 0x0c, 0xd4, 0x03, 0x52, 0xe0, 0xe4, 0x23, 0x10, 0x24, 0xd0,
  0x0c, 0x69, 0xf4, 0x0f, 0x22, 0x13, 0x0d, 0xc2, 0xee, 0x38, 0xa4, 0xf7,
  0x23, 0x27, 0x17, 0xc2, 0xfb, 0x32, 0xb5, 0x23, 0x2b, 0xff, 0x06, 0xb7,
  0x03, 0x3d, 0xc8, 0xea, 0x33, 0x1c, 0x05, 0xb1, 0xfa, 0x29, 0xbf, 0x22,
  0x27, 0x06, 0x0a, 0xa8, 0x05, 0x35, 0xc2, 0x11, 0x37, 0x19, 0x0f, 0xac,
  0x07, 0x2f, 0xc4, 0x2e, 0x27, 0x10, 0x02, 0xbe, 0x04, 0x42, 0xda, 0x12,
  0x21, 0x21, 0x06, 0xc1, 0x08, 0x5b, 0xfe, 0x27, 0x21, 0x0a, 0x1b, 0xcf,
  0xe4, 0x2f, 0xac, 0x22, 0x20, 0x05, 0x18, 0xba, 0xfb, 0x2d, 0xd7, 0x19,
  0x1d, 0x12, 0x20, 0xc7, 0xf0, 0x1c, 0xde, 0x28, 0x22, 0x07, 0x08, 0xba,
  0xf3, 0x36, 0xd5, 0x1e, 0x15, 0x11, 0x04, 0xbc, 0xf1, 0x3d, 0xe3, 0x0c,
  0x28, 0x0b, 0x08, 0xba, 0xff, 0x33, 0xe2, 0x17, 0x2f, 0x08, 0x09, 0xc5,
  0x02, 0x3c, 0xec, 0xf8, 0x19, 0x02, 0x0c, 0xbc, 0x06, 0x3f, 0x03, 0x1a,
  0x26, 0x00, 0x14, 0xaf, 0xf5, 0x0f, 0xb4, 0xf6, 0x22, 0x3f, 0x1d, 0xc9,
  0xf4, 0x47, 0xb7, 0x1a, 0x26, 0x15, 0x10, 0xb4, 0xf8, 0x42, 0xb6, 0x0c,
  0x2c, 0x12, 0xff, 0xc1, 0xfe, 0x30, 0x9e, 0x1d, 0x31, 0xf9, 0x01, 0xb9,
  0x02, 0x25, 0xce, 0x08, 0x2c, 0x1d, 0x05, 0xc7, 0x0b, 0x4d, 0xbd, 0x28,
  0x20, 0xf3, 0xfd, 0xc8, 0xff, 0x22, 0xc9, 0x10, 0x1f, 0xfb, 0xfd, 0xca,
  0x05, 0x53, 0xf0, 0x28, 0x1e, 0x21, 0x1f, 0xd3, 0xfe, 0x23, 0x99, 0x10,
  0x25, 0x34, 0x15, 0xb8, 0xfb, 0x23, 0xb0, 0x06, 0x17, 0x0f, 0x1b, 0xce,
  0xfb, 0x28, 0xa2, 0x12, 0x2b, 0x13, 0x00, 0xc9, 0xfd, 0x43, 0xa1, 0x18,
  0x1f, 0x14, 0x13, 0xd4, 0xf1, 0x14, 0xa2, 0x12, 0x2d, 0x07, 0xfb, 0xde,
  0xfb, 0x3f, 0xb7, 0x0e, 0x1f, 0xf7, 0x04, 0xe2, 0xfc, 0x23, 0xc8, 0xf6,
  0x1e, 0xfc, 0xf9, 0xe0, 0xf9, 0x45, 0xd3, 0x0e, 0xee, 0x1d, 0xdf, 0x13,
  0x06, 0xa6, 0xee, 0x77, 0xea, 0x1c, 0xd1, 0x04, 0x06, 0xd9, 0xf8, 0x44,
  0xef, 0x2f, 0xd5, 0xec, 0x01, 0xea, 0xfb, 0x26, 0xeb, 0x2a, 0xc9, 0x02,
  0x13, 0x00, 0x05, 0x00, 0xe9, 0x29, 0xd1, 0xcb, 0x15, 0xfd, 0x01, 0x16,
  0xe4, 0x26, 0xdc, 0xd9, 0x18, 0x1c, 0x16, 0x26, 0xf9, 0x17, 0xe7, 0xb7,
  0x0d, 0x09, 0x24, 0x2e, 0xf2, 0x18, 0xd0, 0xc5, 0x1d, 0x0f, 0x30, 0x3c,
  0xfa, 0x18, 0xdc, 0xe5, 0x0e, 0xcc, 0x01, 0x67, 0xed, 0x3b, 0xc6, 0xe7,
  0x02, 0xf3, 0x01, 0x42, 0xe9, 0x3b, 0xd1, 0xd2, 0x21, 0x06, 0x09, 0x2b,
  0xfc, 0x45, 0xc4, 0xdc, 0x1d, 0x09, 0x0c, 0x33, 0xf0, 0x42, 0xdd, 0xc8,
  0x23, 0x0c, 0x08, 0x23, 0xeb, 0x42, 0xc6, 0xc7, 0x1b, 0x0a, 0x08, 0x39,
  0xf6, 0x24, 0xe2, 0xbe, 0x14, 0x0a, 0x18, 0x27, 0xe7, 0x23, 0xd4, 0xd8,
  0x12, 0x09, 0x05, 0x52, 0xec, 0x22, 0xce, 0xf7, 0x05, 0xea, 0xf1, 0x70,
  0xfa, 0x29, 0xc4, 0x08, 0x0e, 0xf8, 0x06, 0x38, 0xfa, 0x30, 0xca, 0xe4,
  0x11, 0xf2, 0xf7, 0x29, 0xf3, 0x47, 0xc8, 0xf0, 0x1e, 0x09, 0x05, 0x2a,
  0xf1, 0x26, 0xde, 0xd3, 0x0d, 0x04, 0xfe, 0x40, 0xe5, 0x3b, 0xd9, 0xdb,
  0x17, 0x15, 0x10, 0x40, 0xee, 0x14, 0xeb, 0xc5, 0xf8, 0x0b, 0x1d, 0x30,
  0xf4, 0x12, 0xf0, 0xe7, 0x13, 0x13, 0x0c, 0x5b, 0xfb, 0x30, 0xea, 0xf7,
  0x0b, 0x0c, 0x04, 0x41, 0xf7, 0x38, 0xce, 0x17, 0x0d, 0x12, 0x02, 0x43,
  0xee, 0x50, 0xde, 0xf4, 0x12, 0x09, 0x12, 0x32, 0xf2, 0x5b, 0xcd, 0xe6,
  0x12, 0x01, 0x02, 0x3f, 0xe8, 0x45, 0xdc, 0xe5, 0x19, 0x13, 0x01, 0x40,
  0xe1, 0x44, 0xce, 0xce, 0x09, 0x07, 0x05, 0x53, 0xe3, 0x35, 0xe7, 0xce,
  0xfe, 0x1d, 0x1c, 0x3e, 0xdf, 0x24, 0xde, 0xcd, 0xf7, 0x17, 0x0a, 0x5c,
  0xf3, 0x31, 0xe6, 0xf9, 0x13, 0xf8, 0xef, 0x7f, 0xf5, 0x46, 0xe6, 0x08,
  0x1b, 0x1b, 0x0b, 0x51, 0xef, 0x50, 0xe0, 0xf6, 0x17, 0x15, 0x09, 0x41,
  0xe9, 0x63, 0xe1, 0xf2, 0x14, 0x23, 0x16, 0x44, 0xe9, 0x4b, 0xe7, 0xd4,
  0x0e, 0x1a, 0x07, 0x4e, 0xea, 0x46, 0xea, 0xdf, 0x0f, 0x18, 0x20, 0x64,
  0xe5, 0x1a, 0xfa, 0xcd, 0xf9, 0x10, 0x1d, 0x4c, 0xe5, 0x1c, 0xfd, 0xea,
  0x01, 0x1f, 0x0c, 0x6a, 0x01, 0x2b, 0xf5, 0xed, 0x16, 0x07, 0x15, 0x3b,
  0xef, 0x2b, 0xeb, 0x0a, 0x0e, 0x1b, 0x16, 0x3a, 0xee, 0x43, 0xee, 0xe4,
  0x20, 0x17, 0x17, 0x29, 0xe4, 0x4b, 0xe8, 0xe0, 0x0e, 0x0b, 0x11, 0x42,
  0xe4, 0x35, 0xf4, 0xd0, 0x0a, 0x0f, 0x18, 0x3f, 0xe6, 0x2f, 0xde, 0xcd,
  0xf4, 0x0a, 0x11, 0x3d, 0xd9, 0x2a, 0xf0, 0xd9, 0xf6, 0x0e, 0x19, 0x39,
  0xd8, 0x14, 0xed, 0xdd, 0xee, 0x00, 0x08, 0x58, 0x0b, 0x36, 0xee, 0x0c,
  0x1c, 0xf4, 0xe3, 0x4e, 0xf6, 0x45, 0xe7, 0x0d, 0x23, 0x18, 0xf0, 0x48,
  0x05, 0x46, 0xe5, 0xf4, 0x16, 0x07, 0x08, 0x32, 0xf5, 0x53, 0xf3, 0xf3,
  0x1c, 0x0e, 0x08, 0x31, 0xfa, 0x40, 0x0b, 0xd3, 0x03, 0x11, 0x0d, 0x3f,
  0xf4, 0x3e, 0x02, 0xe4, 0x01, 0x08, 0x16, 0x45, 0xec, 0x20, 0x06, 0xd2,
  0xf5, 0x0d, 0x17, 0x43, 0xf3, 0x1b, 0x04, 0xf0, 0xf7, 0x0a, 0x0f, 0x5a,
  0x0a, 0x24, 0x12, 0x16, 0x12, 0xfb, 0xd9, 0x36, 0xff, 0x37, 0xfb, 0x05,
  0x18, 0x03, 0xf2, 0x2c, 0x13, 0x63, 0x05, 0xf9, 0x17, 0x03, 0x11, 0x23,
  0xf4, 0x38, 0xe9, 0xf2, 0x01, 0x0b, 0xff, 0x37, 0xed, 0x57, 0xf7, 0xed,
  0xf3, 0x0b, 0xfd, 0x27, 0xf5, 0x24, 0xf1, 0xd8, 0xf8, 0x09, 0x09, 0x29,
  0xeb, 0x32, 0x05, 0xf6, 0xf4, 0x07, 0x0c, 0x2b, 0xe5, 0x19, 0xf1, 0xec,
  0xe8, 0x0d, 0x06, 0x58, 0xb2, 0xa5, 0xd6, 0xff, 0x22, 0xc0, 0xf9, 0x7a,
  0xc8, 0xb5, 0xcd, 0xf4, 0x14, 0xdb, 0x09, 0x4c, 0xb5, 0xc5, 0xcf, 0x0a,
  0x2d, 0xf7, 0xfa, 0x51, 0xf3, 0xe6, 0xc9, 0x11, 0x23, 0x00, 0x01, 0x2a,
  0xc9, 0xd2, 0xd8, 0x1d, 0x46, 0x1b, 0xf9, 0x57, 0xea, 0xea, 0xe0, 0x13,
  0x34, 0x1d, 0xfa, 0x55, 0xc2, 0xf2, 0xf1, 0x15, 0x47, 0x27, 0x04, 0x6f,
  0xfa, 0xf3, 0xe7, 0xfc, 0x3e, 0x20, 0xfa, 0x7c, 0xaf, 0xb6, 0xca, 0x08,
  0x12, 0xce, 0x10, 0x58, 0xbc, 0x9e, 0xb1, 0x06, 0x22, 0xcb, 0x0f, 0x2a,
  0xbb, 0xbb, 0xb4, 0xf5, 0x19, 0xec, 0x14, 0x39, 0xc7, 0xbf, 0xd4, 0x11,
  0x2f, 0xf7, 0x12, 0x41, 0xd3, 0xdc, 0xc5, 0x0d, 0x2c, 0xfd, 0xf5, 0x3d,
  0xd0, 0xe9, 0xc2, 0x1d, 0x3d, 0x0a, 0x15, 0x39, 0xcb, 0xfd, 0xd8, 0xe5,
  0x22, 0x0c, 0xfb, 0x37, 0xe1, 0xed, 0xef, 0xed, 0x3e, 0x1c, 0xf8, 0x68,
  0xb2, 0xa6, 0xbc, 0xff, 0x14, 0xdc, 0x03, 0x54, 0xbe, 0x81, 0xa8, 0x05,
  0x0a, 0xe3, 0x0f, 0x39, 0xaf, 0xdb, 0xc0, 0x23, 0x10, 0xf0, 0xff, 0x58,
  0xe2, 0xc5, 0xae, 0x08, 0x19, 0x08, 0xfd, 0x4b, 0xaf, 0xeb, 0xc3, 0x18,
  0x17, 0x08, 0x03, 0x70, 0xe9, 0xe5, 0xc4, 0x11, 0x1e, 0x11, 0xfb, 0x61,
  0xcf, 0x07, 0xc7, 0x07, 0x18, 0x1b, 0xff, 0x52, 0xf4, 0xec, 0xd7, 0xec,
  0x26, 0x1a, 0xf7, 0x6d, 0x96, 0xc7, 0xae, 0x15, 0x04, 0xd4, 0x12, 0x6c,
  0xaf, 0xb0, 0xa9, 0x21, 0x0b, 0xe6, 0x17, 0x3a, 0xb7, 0xcd, 0xb5, 0x11,
  0x19, 0xf7, 0x1b, 0x52, 0xb7, 0xbc, 0xab, 0x2d, 0x20, 0xf7, 0x07, 0x58,
  0xbf, 0xe9, 0xb1, 0x21, 0x14, 0x05, 0x0b, 0x60, 0xd6, 0xfc, 0xab, 0xfd,
  0x20, 0x03, 0x02, 0x4f, 0xc4, 0xf6, 0xb5, 0x02, 0x15, 0x18, 0x15, 0x52,
  0xe2, 0x04, 0xcd, 0xf9, 0x16, 0x23, 0x0a, 0x6d, 0xa4, 0xd5, 0xb7, 0x13,
  0x15, 0xe3, 0x0e, 0x5b, 0xb3, 0xb5, 0x9c, 0x17, 0x08, 0xf8, 0x13, 0x4d,
  0xb5, 0xe0, 0x9f, 0x1e, 0x16, 0x01, 0x04, 0x48, 0xd3, 0xb6, 0xa6, 0x13,
  0x17, 0xff, 0x1c, 0x5e, 0xc3, 0xf9, 0xae, 0x1f, 0x20, 0x04, 0x12, 0x5e,
  0xeb, 0xdf, 0xc1, 0x13, 0x1b, 0x0c, 0x1b, 0x58, 0xb7, 0x00, 0xbe, 0x01,
  0x18, 0x1f, 0x0b, 0x53, 0xf2, 0xe1, 0xcd, 0xfe, 0x15, 0x29, 0x15, 0x73,
  0xb9, 0xe4, 0xc7, 0x1d, 0x0e, 0xe5, 0x2e, 0x49, 0xb0, 0xb0, 0xc1, 0x22,
  0x0f, 0xec, 0x16, 0x2b, 0xbc, 0xee, 0xc0, 0x1b, 0x10, 0xe4, 0x26, 0x34,
  0xbd, 0xbf, 0xbf, 0x17, 0x17, 0xf0, 0x15, 0x27, 0xd8, 0xf8, 0xca, 0x0d,
  0x1e, 0xfb, 0x23, 0x34, 0xde, 0xf3, 0xc9, 0x12, 0x10, 0x09, 0x22, 0x2f,
  0xe3, 0xed, 0xcf, 0xf4, 0x0d, 0x0f, 0x1d, 0x3d, 0xf0, 0xe6, 0xe3, 0xf8,
  0x0c, 0x1e, 0x1a, 0x5b, 0xc4, 0xf7, 0xc8, 0x13, 0x18, 0xef, 0x10, 0x4f,
  0xc1, 0xd4, 0xc5, 0x0e, 0x1c, 0x0c, 0x1d, 0x2c, 0xcd, 0xfc, 0xc9, 0x13,
  0x19, 0xfc, 0x14, 0x31, 0xe0, 0xea, 0xc2, 0x1c, 0x2a, 0x01, 0x1d, 0x42,
  0xcd, 0xf7, 0xbb, 0x1d, 0x21, 0xfb, 0x12, 0x50, 0xe7, 0x09, 0xdc, 0x03,
  0x1b, 0x0b, 0x24, 0x38, 0xc7, 0x04, 0xd6, 0x0d, 0x06, 0x0a, 0x0d, 0x45,
  0xfc, 0x09, 0xeb, 0x08, 0x24, 0x1f, 0x12, 0x6d, 0xc2, 0xfe, 0xdf, 0x1c,
  0x17, 0x01, 0x2a, 0x32, 0xc7, 0xf2, 0xc9, 0x12, 0x0d, 0x00, 0x2c, 0x17,
  0xd4, 0xf2, 0xc2, 0x0c, 0x1f, 0xf8, 0x36, 0x2c, 0xd1, 0xfb, 0xd8, 0x0e,
  0x20, 0xf9, 0x1f, 0x09, 0xd3, 0xe6, 0xe2, 0x10, 0x1c, 0xf1, 0x2c, 0x30,
  0xd4, 0x0c, 0xf0, 0x08, 0x18, 0xfb, 0x29, 0x1d, 0xd5, 0x14, 0xe8, 0xfc,
  0x24, 0xfa, 0x25, 0x2e, 0xee, 0x0b, 0xf7, 0xff, 0x0d, 0x16, 0x1e, 0x4d,
  0xfa, 0x06, 0x54, 0xf5, 0xe8, 0x19, 0x27, 0xcf, 0xf8, 0xef, 0x46, 0xf2,
  0xe5, 0x10, 0x19, 0xe5, 0x03, 0x0a, 0x46, 0xfb, 0xe4, 0x10, 0x02, 0xe8,
  0x03, 0xfe, 0x33, 0xfe, 0xd4, 0x14, 0xf6, 0xf6, 0x13, 0x24, 0x51, 0x19,
  0xe5, 0x14, 0xea, 0xf2, 0x03, 0x17, 0x55, 0x07, 0xd8, 0xfe, 0x06, 0xf7,
  0x0f, 0x2d, 0x7f, 0x16, 0xe6, 0xfd, 0xfc, 0xfa, 0x08, 0x0b, 0x5a, 0x3f,
  0xe5, 0xf1, 0xfa, 0xf6, 0xf0, 0x0b, 0x2d, 0x04, 0xec, 0x04, 0x0d, 0xed,
  0x0a, 0xda, 0x30, 0x21, 0xed, 0xfb, 0x0f, 0xed, 0x01, 0x00, 0x15, 0x1e,
  0xe5, 0x0a, 0x02, 0xf7, 0x0c, 0x0a, 0x23, 0x22, 0xe4, 0x03, 0xff, 0xf8,
  0x0e, 0x1a, 0x0d, 0x22, 0xe0, 0xeb, 0xf0, 0xfe, 0xfb, 0x12, 0x2c, 0x20,
  0xe9, 0xea, 0xfe, 0xf3, 0x16, 0x25, 0x30, 0x1c, 0xe5, 0xe8, 0xfb, 0xfa,
  0x13, 0x14, 0x30, 0x47, 0xe9, 0xec, 0xfa, 0xf8, 0x12, 0xf9, 0x0b, 0x08,
  0xfe, 0xf8, 0x10, 0xd9, 0x07, 0xe8, 0x18, 0x21, 0xff, 0xf7, 0x0f, 0xd9,
  0x0d, 0xfd, 0xff, 0x1e, 0xf0, 0xee, 0x02, 0xe0, 0xfb, 0x07, 0x0f, 0x2e,
  0xe6, 0xe7, 0x02, 0xee, 0x0b, 0x12, 0xfe, 0x2a, 0xe9, 0xed, 0xf9, 0xef,
  0x07, 0x03, 0x23, 0x1a, 0xe9, 0xd4, 0x0e, 0xfa, 0x0c, 0x1d, 0x25, 0x1c,
  0xe9, 0xe5, 0x03, 0x04, 0x1c, 0x12, 0x16, 0x36, 0xeb, 0xd8, 0x12, 0x07,
  0x18, 0xf1, 0x14, 0x05, 0x00, 0xf7, 0x0a, 0xe1, 0x26, 0x07, 0x09, 0x16,
  0xf6, 0xec, 0x01, 0xdc, 0x1d, 0x07, 0x0f, 0x1c, 0xed, 0xdc, 0xfd, 0xf1,
  0x1b, 0x12, 0xfe, 0x19, 0xe7, 0xdd, 0xee, 0xf8, 0x24, 0x1a, 0xff, 0x1b,
  0xe8, 0xd9, 0xf2, 0x02, 0x11, 0x1d, 0x12, 0x1b, 0xe9, 0xdf, 0x00, 0xfc,
  0x24, 0x25, 0x11, 0x28, 0xeb, 0xdb, 0x01, 0xfc, 0x2e, 0x22, 0xff, 0x18,
  0xec, 0xda, 0xf3, 0x04, 0x19, 0x19, 0x0e, 0xff, 0xfe, 0xe8, 0x09, 0xde,
  0x21, 0x08, 0x0a, 0x12, 0xfb, 0xd4, 0xff, 0xdd, 0x26, 0x10, 0xfb, 0x14,
  0xfb, 0xd9, 0x03, 0xdc, 0x27, 0x0c, 0xfd, 0x24, 0xf0, 0xdd, 0xf1, 0xde,
  0x30, 0x11, 0xf6, 0x26, 0xf8, 0xdf, 0xe9, 0xf0, 0x1d, 0x11, 0x1e, 0x17,
  0xf1, 0xd0, 0x0a, 0xfc, 0x21, 0x19, 0x12, 0x22, 0xeb, 0xd0, 0x03, 0x07,
  0x31, 0x0a, 0x16, 0x3e, 0xf2, 0xcb, 0xfb, 0x04, 0x16, 0x0b, 0x22, 0x07,
  0xfe, 0xe1, 0x18, 0xdb, 0x20, 0x11, 0x22, 0x17, 0xfe, 0xd9, 0x0e, 0xd3,
  0x28, 0x12, 0x1b, 0x20, 0xfa, 0xd2, 0x02, 0xea, 0x22, 0x27, 0x01, 0x27,
  0xfd, 0xde, 0xf8, 0xe4, 0x14, 0x2c, 0x0a, 0x35, 0xf6, 0xd0, 0xf6, 0xf4,
  0x1d, 0x1f, 0x1c, 0x0f, 0xfe, 0xd5, 0x09, 0xf2, 0x1f, 0x2b, 0x23, 0x31,
  0xf8, 0xd2, 0xff, 0x06, 0x2e, 0x1e, 0x0f, 0x40, 0xff, 0xd1, 0xf2, 0xf5,
  0x08, 0x1f, 0x23, 0xf9, 0x03, 0xdd, 0x17, 0xe5, 0x17, 0xf6, 0x21, 0x0a,
  0x09, 0xe7, 0x24, 0xda, 0x13, 0x13, 0x1b, 0x17, 0x0d, 0xce, 0x11, 0xdd,
  0x2b, 0x04, 0x0f, 0x27, 0x08, 0xe6, 0xf9, 0xef, 0x0f, 0x1a, 0x0a, 0x2f,
  0x10, 0xcf, 0x05, 0xf4, 0x1e, 0xf6, 0x16, 0x26, 0x06, 0xd6, 0x1b, 0xf8,
  0x05, 0x0e, 0x1d, 0x2e, 0xfc, 0xd3, 0xff, 0x07, 0x2f, 0x01, 0x23, 0x58,
  0xfe, 0xcc, 0x08, 0x09, 0x09, 0x3b, 0x33, 0xe8, 0x08, 0xd6, 0x2c, 0xde,
  0x17, 0x17, 0x30, 0x08, 0x07, 0xd5, 0x26, 0xd9, 0x29, 0x13, 0x25, 0x20,
  0x0d, 0xd7, 0x1e, 0xe2, 0x22, 0x20, 0x1a, 0x27, 0x0c, 0xe3, 0x12, 0xf6,
  0x1f, 0x31, 0x2d, 0x29, 0x17, 0xcf, 0x10, 0x06, 0x11, 0x29, 0x30, 0x12,
  0x06, 0xe0, 0x15, 0x05, 0x17, 0x37, 0x2e, 0x2e, 0x04, 0xd9, 0x0b, 0x09,
  0x27, 0x29, 0x24, 0x4d, 0x0a, 0xdc, 0x01, 0x0d, 0xdf, 0xb2, 0xcf, 0x03,
  0x1b, 0x68, 0x18, 0x41, 0xda, 0xb0, 0xbb, 0x26, 0x0e, 0x33, 0x15, 0x1d,
  0xcc, 0xa5, 0xec, 0x17, 0x12, 0x11, 0xdd, 0x12, 0xdb, 0xa9, 0xd9, 0x23,
  0x1f, 0x17, 0xbe, 0x21, 0xd7, 0x9c, 0xed, 0x29, 0x15, 0x09, 0xb5, 0x0e,
  0xd9, 0x8b, 0x07, 0x44, 0x09, 0x04, 0xdf, 0x14, 0xc3, 0x95, 0x06, 0x49,
  0x0e, 0xfc, 0xcb, 0x17, 0xe9, 0xb6, 0x20, 0x7e, 0x08, 0x04, 0xc4, 0x07,
  0xf4, 0x81, 0xd6, 0x22, 0x00, 0x46, 0x32, 0x31, 0xe9, 0x89, 0xd2, 0x0d,
  0x10, 0x44, 0x10, 0x10, 0xf2, 0x92, 0xdd, 0x1e, 0x05, 0x18, 0xf5, 0x0a,
  0xee, 0x83, 0x03, 0x29, 0x0d, 0x16, 0xda, 0x24, 0xe1, 0x8d, 0xf7, 0x44,
  0x0f, 0x09, 0xd5, 0xfe, 0xec, 0x8e, 0x0a, 0x39, 0x0a, 0x11, 0xd4, 0x13,
  0xea, 0x86, 0x07, 0x30, 0x16, 0x04, 0xe0, 0x01, 0xfd, 0x90, 0x0b, 0x4c,
  0xfe, 0x1c, 0xbb, 0x02, 0xf6, 0xcf, 0xcc, 0xf0, 0x03, 0x3e, 0xff, 0x07,
  0x00, 0xcb, 0xc8, 0x04, 0x00, 0x3e, 0x13, 0xe1, 0xf7, 0x9c, 0xf1, 0x05,
  0x1c, 0x1e, 0xf2, 0xd2, 0xfb, 0xb6, 0x07, 0x27, 0x0d, 0x1a, 0xdc, 0xe5,
  0xed, 0xa2, 0x11, 0x19, 0x1a, 0x11, 0xbd, 0xf5, 0x10, 0xa0, 0x20, 0x2c,
  0x02, 0x0c, 0xc8, 0x09, 0xf2, 0xaf, 0x1b, 0x29, 0x09, 0x0b, 0xc5, 0x07,
  0x15, 0xc8, 0x0d, 0x51, 0xf2, 0x1a, 0xab, 0xea, 0xf5, 0xbc, 0xe3, 0xed,
  0x17, 0x35, 0x0c, 0x2f, 0xf9, 0xa5, 0xe4, 0x19, 0x0d, 0x45, 0xf4, 0x08,
  0xfa, 0x91, 0xea, 0x2f, 0x09, 0x11, 0xe3, 0x00, 0xf9, 0x9f, 0xe1, 0x38,
  0x0e, 0x2d, 0x9f, 0x03, 0x01, 0x93, 0xfc, 0x43, 0x02, 0x12, 0xbd, 0xe9,
  0x05, 0x98, 0x08, 0x31, 0x08, 0x17, 0xa9, 0xf8, 0x02, 0x9e, 0x00, 0x3e,
  0xf9, 0x09, 0xcb, 0xdf, 0x0b, 0xac, 0xf6, 0x39, 0x03, 0x28, 0xa7, 0xe4,
  0xf2, 0xbf, 0xd2, 0x14, 0x1e, 0x5b, 0xe9, 0x19, 0x03, 0xc7, 0xd0, 0x0e,
  0x14, 0x50, 0xe0, 0x1b, 0xf7, 0xb2, 0xed, 0x24, 0x1d, 0x29, 0xc1, 0xf6,
  0x0b, 0xc0, 0xfe, 0x2f, 0x23, 0x2a, 0x94, 0xf2, 0xfb, 0xb2, 0xed, 0x45,
  0x18, 0x3a, 0x97, 0xe1, 0x0e, 0xb2, 0xf8, 0x2d, 0x03, 0x17, 0xbd, 0xf7,
  0xff, 0xa9, 0xfc, 0x32, 0xfb, 0x15, 0xda, 0xdf, 0x01, 0xc7, 0xfe, 0x23,
  0xfa, 0x1f, 0xd2, 0xc1, 0xf8, 0xc4, 0xd5, 0x07, 0x1e, 0x3e, 0xec, 0x28,
  0xff, 0xb5, 0xd9, 0x0b, 0x0e, 0x42, 0xde, 0xfe, 0x00, 0xc7, 0xe9, 0x26,
  0x11, 0x1a, 0xc1, 0x1d, 0x04, 0xc4, 0xe9, 0x27, 0x10, 0x2b, 0x9b, 0x01,
  0x07, 0xbf, 0xeb, 0x30, 0xff, 0xff, 0xa3, 0xfc, 0x05, 0xb1, 0xf3, 0x04,
  0x0c, 0x2d, 0xba, 0xf9, 0x0c, 0xb6, 0xf3, 0x0f, 0xf7, 0xf6, 0x0f, 0xcd,
  0xff, 0xd3, 0xff, 0x07, 0x01, 0xf5, 0xfa, 0xa3, 0xf7, 0xb9, 0xdb, 0x0d,
  0x25, 0x4c, 0xd3, 0x38, 0x0f, 0xc0, 0xd7, 0x13, 0x1f, 0x49, 0xe3, 0x12,
  0x03, 0xbf, 0xd4, 0x20, 0x24, 0x32, 0xb8, 0xf7, 0xff, 0xd7, 0xe1, 0x12,
  0x25, 0x48, 0xb6, 0xf7, 0x04, 0xc7, 0xcf, 0x1f, 0x22, 0x47, 0xad, 0xf7,
  0x0f, 0xc1, 0xe8, 0x0b, 0x0b, 0x37, 0xed, 0xf3, 0xf0, 0xc5, 0xe7, 0xfc,
  0x16, 0x0f, 0x05, 0xdd, 0xf3, 0xcb, 0xfa, 0x04, 0xff, 0xfe, 0x28, 0xb8,
  0xfe, 0xbe, 0xea, 0xfe, 0x21, 0x55, 0xc1, 0x33, 0x0f, 0xc9, 0xcc, 0x0a,
  0x28, 0x68, 0xb9, 0xef, 0x04, 0xc2, 0xcf, 0x11, 0x1a, 0x5a, 0xb6, 0x20,
  0x06, 0xcd, 0xd7, 0x10, 0x1c, 0x66, 0xa3, 0xe7, 0x10, 0xa4, 0xcf, 0x1d,
  0x14, 0x50, 0xd6, 0xf8, 0x06, 0xb9, 0xe5, 0x04, 0x10, 0x50, 0xf2, 0xdb,
  0x08, 0xcc, 0xe2, 0x14, 0x0c, 0x19, 0x0c, 0xcb, 0x02, 0xcd, 0x03, 0x00,
  0x14, 0xe2, 0xf9, 0x9a, 0xbc, 0x8f, 0xe1, 0x1e, 0x1b, 0xc4, 0x02, 0x2e,
  0xc4, 0x9f, 0xd3, 0x09, 0x10, 0xe1, 0x04, 0x3f, 0xca, 0x94, 0xdf, 0x34,
  0x2a, 0x01, 0x09, 0x4b, 0xd4, 0xce, 0xcc, 0x0a, 0x1e, 0x1a, 0xf5, 0x3f,
  0xd2, 0xbe, 0xe1, 0x25, 0x28, 0x16, 0x03, 0x49, 0xee, 0xd3, 0xdc, 0x14,
  0x35, 0x1a, 0xde, 0x52, 0xc2, 0xdd, 0xf3, 0x14, 0x2e, 0x25, 0xf7, 0x5a,
  0xfb, 0xea, 0x0a, 0xfc, 0x3e, 0x1c, 0xe4, 0x7f, 0xbe, 0x86, 0xda, 0x1f,
  0x15, 0xb9, 0x1e, 0x30, 0xc0, 0x86, 0xd6, 0x33, 0x0a, 0xf2, 0x1a, 0x1d,
  0xd3, 0x98, 0xc8, 0x1d, 0x1b, 0xe6, 0x2a, 0x3b, 0xc5, 0x98, 0xbe, 0x21,
  0x2a, 0x09, 0x07, 0x3c, 0xbd, 0xc1, 0xcd, 0x26, 0x26, 0x0f, 0x04, 0x49,
  0xd1, 0xd2, 0xc6, 0x13, 0x20, 0x1d, 0xf6, 0x40, 0xc8, 0xdf, 0xd0, 0x13,
  0x1b, 0x0d, 0x09, 0x64, 0xe5, 0xd2, 0xe9, 0xff, 0x25, 0x17, 0xfc, 0x55,
  0xc5, 0x9d, 0xe0, 0x1a, 0x03, 0xc5, 0x27, 0x18, 0xcb, 0x95, 0xba, 0xfa,
  0x12, 0xe1, 0x3b, 0x35, 0xc4, 0x9c, 0xd7, 0x25, 0x17, 0xee, 0x21, 0x3e,
  0xe4, 0xd0, 0xb5, 0x0b, 0x0c, 0xfe, 0x0f, 0x4e, 0xd7, 0xdb, 0xd0, 0x2f,
  0x14, 0x06, 0x19, 0x42, 0xdb, 0xe6, 0xc9, 0x0c, 0x1d, 0x0e, 0x03, 0x4e,
  0xdf, 0xd3, 0xe2, 0x1e, 0x0b, 0x14, 0x19, 0x43, 0xeb, 0xfa, 0xe4, 0x15,
  0x17, 0x1c, 0x13, 0x66, 0xaf, 0xb8, 0xba, 0x32, 0x0a, 0xbe, 0x27, 0x33,
  0xb8, 0xa0, 0xaf, 0x3b, 0x05, 0xd4, 0x1d, 0x20, 0xbd, 0xa4, 0xaf, 0x2d,
  0x08, 0xef, 0x19, 0x3c, 0xc7, 0x97, 0xb8, 0x23, 0x07, 0xf6, 0x03, 0x48,
  0xbb, 0xd5, 0xb1, 0x34, 0x16, 0xfd, 0x20, 0x49, 0xc7, 0xed, 0xb3, 0x2f,
  0x0f, 0x12, 0x11, 0x3c, 0xc2, 0xf4, 0xad, 0x1c, 0x07, 0x0b, 0x1e, 0x53,
  0xe6, 0xf0, 0xce, 0x27, 0x09, 0x1a, 0x1c, 0x4b, 0xc3, 0xc4, 0xdc, 0x26,
  0x01, 0xc0, 0x20, 0x2f, 0xc0, 0xab, 0xb5, 0x1d, 0x0d, 0xd5, 0x3a, 0x27,
  0xb7, 0xcd, 0xc7, 0x3f, 0x07, 0xea, 0x2b, 0x2c, 0xd1, 0xab, 0xb0, 0x18,
  0x0e, 0xff, 0x2a, 0x3b, 0xca, 0xc3, 0xbb, 0x35, 0x0d, 0xf0, 0x2e, 0x3e,
  0xdd, 0xe0, 0xc9, 0x14, 0x15, 0x12, 0x2b, 0x41, 0xc8, 0xd2, 0xe7, 0x32,
  0x04, 0x10, 0x27, 0x54, 0xe8, 0xed, 0xde, 0x0e, 0x18, 0x1e, 0x1e, 0x51,
  0xbb, 0xd0, 0xcc, 0x25, 0x04, 0xb9, 0x39, 0x1e, 0xba, 0xb8, 0xd1, 0x24,
  0x06, 0xf6, 0x28, 0x13, 0xc6, 0xc8, 0xca, 0x1e, 0x1b, 0xda, 0x2d, 0x41,
  0xcc, 0xcc, 0xc8, 0x10, 0x0a, 0xf8, 0x29, 0x14, 0xd4, 0xbf, 0xc9, 0x22,
  0x0a, 0xee, 0x30, 0x27, 0xe8, 0xdc, 0xe0, 0x19, 0x0c, 0x02, 0x19, 0x27,
  0xe1, 0xeb, 0xbf, 0x17, 0x0c, 0x04, 0x28, 0x36, 0xed, 0xe5, 0xe3, 0xfa,
  0x0b, 0x0d, 0x27, 0x4f, 0xcb, 0xea, 0xdb, 0x27, 0x0e, 0xe2, 0x34, 0x08,
  0xec, 0xe7, 0xc8, 0x12, 0x18, 0xe1, 0x41, 0xfd, 0xd9, 0xde, 0xc5, 0x20,
  0x19, 0xdf, 0x41, 0x1a, 0xef, 0xe3, 0xd6, 0x0d, 0x1c, 0xd6, 0x32, 0x19,
  0xd5, 0xdc, 0xc6, 0x33, 0x25, 0xeb, 0x28, 0x36, 0xe8, 0xe5, 0xe1, 0x03,
  0x23, 0xf1, 0x13, 0x10, 0xd6, 0xe2, 0xd7, 0x2a, 0x1a, 0xfa, 0x21, 0x15,
  0xf7, 0x01, 0xe9, 0xff, 0x25, 0x16, 0x20, 0x34, 0xd4, 0xee, 0xe0, 0x1b,
  0x0e, 0xe3, 0x3b, 0x0c, 0xd0, 0xed, 0xd5, 0x1d, 0x07, 0xfc, 0x3e, 0x03,
  0xd9, 0xe7, 0xca, 0x08, 0x14, 0xd1, 0x47, 0x0e, 0xea, 0xeb, 0xd9, 0x14,
  0x1d, 0xeb, 0x3d, 0x11, 0xd4, 0xf5, 0xe2, 0x17, 0x19, 0xdd, 0x42, 0x10,
  0xf2, 0x03, 0xe3, 0x12, 0x13, 0xf2, 0x33, 0x2f, 0xdb, 0xe7, 0xd8, 0x04,
  0x24, 0xfb, 0x2e, 0x38, 0xf4, 0x0a, 0xe4, 0xf2, 0x19, 0xf8, 0x44, 0x37,
  0xd6, 0xb2, 0xdf, 0x0f, 0x20, 0x0a, 0x00, 0x43, 0xd0, 0x9c, 0xcf, 0xf2,
  0x13, 0x12, 0x03, 0x28, 0xc1, 0x99, 0xd9, 0x0b, 0x41, 0x12, 0xee, 0x28,
  0xc9, 0xae, 0xc3, 0x0a, 0x42, 0x1c, 0xf5, 0x24, 0xd7, 0xac, 0xc1, 0x24,
  0x32, 0x23, 0xdc, 0x31, 0xd0, 0xc9, 0xf3, 0x0f, 0x32, 0x29, 0xd9, 0x2c,
  0xc3, 0xb0, 0xf9, 0x23, 0x39, 0x10, 0xcf, 0x4b, 0xe6, 0xb1, 0xfb, 0x11,
  0x3d, 0x25, 0xde, 0x3f, 0xd1, 0xac, 0xde, 0x0c, 0x02, 0xf8, 0x11, 0x25,
  0xbe, 0x8c, 0xd3, 0x02, 0x27, 0x12, 0x04, 0x0c, 0xd2, 0x92, 0xd7, 0x17,
  0x17, 0x0d, 0xfb, 0x06, 0xcf, 0x81, 0xcf, 0x18, 0x36, 0x13, 0xfb, 0x24,
  0xdd, 0x96, 0xda, 0x15, 0x2a, 0x1b, 0xf1, 0x04, 0xdd, 0xa4, 0xde, 0x12,
  0x49, 0x18, 0xf6, 0x23, 0xd4, 0xb8, 0xef, 0x10, 0x13, 0x16, 0xea, 0xff,
  0xf3, 0xbb, 0xed, 0x1a, 0x3a, 0x0d, 0xb7, 0x35, 0xe1, 0x93, 0xdd, 0x0d,
  0xfb, 0x0e, 0xfc, 0x0c, 0xdc, 0xb2, 0xc8, 0xff, 0x04, 0x06, 0x02, 0x14,
  0xd1, 0xaa, 0xd5, 0x13, 0x0f, 0x17, 0xfb, 0xfc, 0xe5, 0xb9, 0xcf, 0x0f,
  0x11, 0x0a, 0xfd, 0x1e, 0xe4, 0xaa, 0xcd, 0x25, 0x0d, 0x27, 0xeb, 0x0c,
  0xed, 0xd9, 0xea, 0x12, 0x19, 0x1d, 0xf8, 0x2a, 0xd9, 0xd6, 0xec, 0x08,
  0x07, 0x10, 0xea, 0x14, 0xf4, 0xdc, 0xf8, 0x09, 0x17, 0x17, 0xd8, 0x1e,
  0xc7, 0xc3, 0xd8, 0x16, 0x04, 0xf4, 0xff, 0x2c, 0xcc, 0x96, 0xbe, 0x1e,
  0x01, 0x0e, 0xff, 0x22, 0xd5, 0xb1, 0xc1, 0x28, 0xfd, 0x05, 0x12, 0x11,
  0xd9, 0x94, 0xac, 0x2d, 0x10, 0x17, 0xf3, 0x20, 0xd5, 0xb0, 0xc3, 0x2f,
  0xff, 0x01, 0xfb, 0x17, 0xf4, 0xbc, 0xc9, 0x2f, 0x22, 0x05, 0xf5, 0x1d,
  0xe0, 0xdb, 0xd4, 0x20, 0x00, 0x0a, 0xf4, 0x12, 0xf7, 0xcd, 0xdc, 0x23,
  0x11, 0x17, 0xe9, 0x2d, 0xb2, 0xbb, 0xd6, 0x12, 0xff, 0x0b, 0xf7, 0x1c,
  0xd5, 0xbb, 0xc2, 0x11, 0x06, 0x23, 0x01, 0x25, 0xd5, 0xb3, 0xbb, 0x29,
  0x1a, 0x12, 0xfa, 0x13, 0xe5, 0xb2, 0xac, 0x15, 0x25, 0x29, 0xf7, 0x1e,
  0xdb, 0xb8, 0xbf, 0x2d, 0x11, 0x21, 0xf8, 0x21, 0xec, 0xcb, 0xcf, 0x10,
  0x1d, 0x14, 0x00, 0x20, 0xd3, 0xdd, 0xf6, 0x15, 0x06, 0x12, 0xfd, 0x15,
  0xed, 0xc8, 0xed, 0x0c, 0x12, 0x19, 0xec, 0x0f, 0xd8, 0xe0, 0xdd, 0x11,
  0xfb, 0xfb, 0x11, 0x20, 0xc7, 0xb3, 0xbf, 0x0e, 0x16, 0x19, 0x0e, 0x10,
  0xe0, 0xd3, 0xc8, 0x12, 0x12, 0x02, 0x16, 0x26, 0xcd, 0xc5, 0xc4, 0x13,
  0x26, 0x14, 0x07, 0x1f, 0xe4, 0xdd, 0xc6, 0x28, 0x12, 0x06, 0x17, 0x1c,
  0xe6, 0xcc, 0xd4, 0x09, 0x20, 0x00, 0x04, 0x1a, 0xef, 0xee, 0xe7, 0x1a,
  0x11, 0x13, 0x16, 0x09, 0xee, 0xca, 0xea, 0x00, 0x13, 0x0c, 0xfd, 0x0e,
  0xd4, 0xec, 0xe8, 0x0d, 0x20, 0x00, 0x05, 0x00, 0xe6, 0xca, 0xd2, 0x06,
  0x1c, 0x11, 0x17, 0x08, 0xdc, 0xd2, 0xd2, 0x0c, 0x24, 0x0c, 0x04, 0xfd,
  0xe9, 0xc7, 0xc4, 0x0b, 0x3d, 0x18, 0x05, 0x05, 0xe0, 0xd7, 0xb3, 0x16,
  0x2e, 0x15, 0x01, 0x06, 0xed, 0xca, 0xe0, 0x08, 0x40, 0x10, 0x08, 0xfc,
  0xcf, 0xdf, 0xd6, 0x06, 0x35, 0x02, 0x03, 0x04, 0xf6, 0xdb, 0xf9, 0x08,
  0x32, 0x1e, 0xfe, 0x13, 0xe1, 0xfb, 0xd0, 0x10, 0x15, 0x05, 0x07, 0x1f,
  0xd4, 0xe2, 0xd1, 0x08, 0x2a, 0x0c, 0x12, 0x02, 0xf1, 0xe6, 0xc6, 0x17,
  0x35, 0xf8, 0x04, 0x17, 0xd8, 0xbf, 0xc7, 0x0c, 0x4e, 0x13, 0x08, 0x0b,
  0xea, 0xe3, 0xc3, 0x1b, 0x46, 0x08, 0x07, 0x0d, 0xe1, 0xe4, 0xe4, 0x06,
  0x48, 0x06, 0x0d, 0x09, 0xe7, 0xf8, 0xd6, 0x14, 0x27, 0x0e, 0x08, 0x0c,
  0xff, 0xf0, 0xee, 0x0a, 0x2a, 0x17, 0x03, 0xfa, 0xf5, 0xdd, 0x16, 0x08,
  0xfa, 0x03, 0x08, 0xe5, 0xf2, 0xc6, 0x1c, 0x07, 0x02, 0xfe, 0x02, 0xd4,
  0x00, 0xe3, 0x29, 0x28, 0x0b, 0xf5, 0xf2, 0xdd, 0x08, 0xee, 0x1f, 0x1e,
  0x07, 0xed, 0xe8, 0xe6, 0x08, 0xeb, 0x29, 0x2e, 0xfd, 0xef, 0xf5, 0xe3,
  0x06, 0xe5, 0x2f, 0x09, 0xfb, 0xe6, 0x08, 0xfe, 0x06, 0xfe, 0x2c, 0x44,
  0x00, 0xdf, 0xfa, 0xfd, 0x0b, 0xf7, 0x32, 0x7f, 0xfd, 0xdd, 0x07, 0xf5,
  0x09, 0xd4, 0x14, 0x1e, 0x09, 0x04, 0x1f, 0xd7, 0x09, 0xce, 0x13, 0x2d,
  0x08, 0xfe, 0x03, 0xd7, 0x16, 0xd7, 0x0e, 0x33, 0x04, 0xf7, 0x0f, 0xd8,
  0x06, 0xee, 0x12, 0x2d, 0xff, 0xf4, 0xfa, 0xed, 0x1b, 0xe6, 0x0f, 0x3c,
  0x00, 0xe7, 0x02, 0xf4, 0x08, 0xee, 0x12, 0x2b, 0xfc, 0xf7, 0x01, 0xec,
  0x11, 0xe7, 0x07, 0x37, 0xfd, 0xec, 0x0e, 0xf6, 0x03, 0xf7, 0x10, 0x61,
  0xfb, 0xdf, 0x00, 0xe6, 0x0d, 0xe3, 0x10, 0x13, 0x01, 0x08, 0x1a, 0xdd,
  0x17, 0xc5, 0x15, 0x1d, 0xff, 0x04, 0x11, 0xd1, 0x09, 0xd3, 0x10, 0x3b,
  0x0d, 0xfa, 0x03, 0xd4, 0x11, 0xf0, 0x03, 0x32, 0xf3, 0xf7, 0x0b, 0xe2,
  0x0a, 0xf3, 0x06, 0x43, 0xff, 0xf0, 0x03, 0xe6, 0x0d, 0xe8, 0x08, 0x24,
  0xf5, 0xf7, 0x1c, 0xff, 0x09, 0xfb, 0x06, 0x53, 0xfc, 0xe5, 0x0d, 0x00,
  0x09, 0xf9, 0x01, 0x58, 0xf2, 0xdf, 0x20, 0xf4, 0x03, 0xd9, 0x02, 0x24,
  0x07, 0x0a, 0x1d, 0xde, 0x11, 0xdb, 0x0b, 0x23, 0x07, 0x04, 0x09, 0xdb,
  0x12, 0xda, 0xfd, 0x39, 0x0a, 0x00, 0x11, 0xe5, 0x05, 0xe6, 0xf8, 0x53,
  0xfa, 0xf5, 0x00, 0xe4, 0x07, 0xef, 0xf4, 0x40, 0xf6, 0xf3, 0x05, 0xee,
  0x00, 0xed, 0xf4, 0x30, 0xeb, 0xf7, 0x06, 0xf1, 0x01, 0xec, 0xf0, 0x50,
  0xf4, 0xea, 0x1a, 0xff, 0xf4, 0xf6, 0xe8, 0x67, 0xeb, 0xe8, 0x05, 0xf1,
  0x05, 0xe7, 0xff, 0x2c, 0x00, 0x02, 0x1a, 0xed, 0x0c, 0xd7, 0x03, 0x20,
  0x03, 0x05, 0x0b, 0xdc, 0xf7, 0xe0, 0x01, 0x48, 0x07, 0xef, 0x10, 0xe4,
  0x01, 0xe7, 0xf6, 0x3f, 0xf4, 0xff, 0x0b, 0xe9, 0xff, 0xee, 0xf6, 0x4d,
  0xfb, 0xf6, 0x05, 0xf2, 0xf7, 0xdf, 0xfd, 0x2b, 0xf0, 0xfd, 0x19, 0xf2,
  0xf4, 0xf0, 0xf4, 0x60, 0xf1, 0xe8, 0x08, 0xfc, 0xee, 0xe4, 0xeb, 0x76,
  0xe6, 0xe4, 0x16, 0xe6, 0xff, 0xea, 0x02, 0x17, 0x04, 0x04, 0x24, 0xe0,
  0x11, 0xec, 0x16, 0x0f, 0x07, 0xf8, 0x0d, 0xe1, 0x07, 0xde, 0x00, 0x29,
  0x04, 0xfe, 0x13, 0xe5, 0x03, 0xf1, 0x05, 0x40, 0x00, 0xf4, 0x05, 0xe2,
  0x03, 0xee, 0xf9, 0x3f, 0xfe, 0xf6, 0x0d, 0xec, 0x00, 0xf5, 0x01, 0x2d,
  0xf2, 0xe9, 0x05, 0xe5, 0xfd, 0xe9, 0x02, 0x3c, 0xfd, 0xe9, 0x1c, 0xf9,
  0xf3, 0xe2, 0xed, 0x60, 0xf5, 0xe6, 0x05, 0xe1, 0x05, 0xde, 0x09, 0x0e,
  0xfd, 0x00, 0x26, 0xed, 0x07, 0xe3, 0xfe, 0x05, 0x01, 0x01, 0x27, 0xd0,
  0x04, 0xf4, 0x07, 0x36, 0x02, 0xfc, 0x1f, 0xd6, 0x09, 0xe9, 0xf7, 0x1c,
  0xfa, 0xfe, 0x16, 0xe8, 0x05, 0xf3, 0x02, 0x4b, 0x04, 0xf3, 0x0b, 0xea,
  0xfe, 0xe2, 0xfc, 0x16, 0xf9, 0xfb, 0x1a, 0xef, 0xf4, 0xec, 0xfd, 0x4d,
  0xff, 0xea, 0x11, 0xf5, 0xf5, 0xe3, 0xea, 0x67, 0xef, 0xe9, 0x23, 0xf2,
  0x0a, 0xee, 0x00, 0x17, 0x03, 0x08, 0x2b, 0xf0, 0x03, 0xf0, 0x06, 0x00,
  0x05, 0xfb, 0x1d, 0xdc, 0x0f, 0xec, 0xff, 0x20, 0x03, 0xff, 0x25, 0xde,
  0x03, 0xf9, 0x0a, 0x29, 0x09, 0xfc, 0x1f, 0xf1, 0x01, 0xf5, 0xf9, 0x3a,
  0x04, 0xf7, 0x1f, 0xf2, 0xf8, 0xea, 0xfd, 0x24, 0xfa, 0xfc, 0x1c, 0xe1,
  0x02, 0xef, 0x01, 0x4d, 0xfd, 0xf1, 0x2b, 0xf7, 0xf1, 0xdf, 0xf3, 0x63,
  0xf8, 0xec, 0x17, 0xee, 0x23, 0x40, 0x1c, 0xe3, 0x0f, 0x47, 0xfd, 0xd0,
  0x07, 0x33, 0x16, 0xe5, 0x0b, 0x3d, 0xf8, 0xe6, 0x20, 0x35, 0x12, 0xfc,
  0xfd, 0x31, 0xff, 0xdc, 0x13, 0x2b, 0x14, 0xf8, 0x01, 0x2d, 0xfe, 0xdd,
  0x1c, 0x23, 0x15, 0x03, 0xff, 0x35, 0x00, 0xdc, 0x15, 0x0d, 0x11, 0xf8,
  0xfb, 0x1f, 0xf1, 0xc8, 0x1c, 0x2f, 0x2a, 0xff, 0xf9, 0x26, 0x03, 0xca,
  0x06, 0x0d, 0x18, 0xfc, 0x05, 0x1e, 0xf4, 0xaf, 0x0c, 0x2b, 0x07, 0xe0,
  0x15, 0x2b, 0xdc, 0xdb, 0x1f, 0x2a, 0x0c, 0xdb, 0x0c, 0x2c, 0xe5, 0xd9,
  0x19, 0x1b, 0x1c, 0xde, 0xfe, 0x2b, 0xe8, 0xe1, 0x21, 0x28, 0x15, 0xef,
  0x03, 0x21, 0xe9, 0xe0, 0x1a, 0x28, 0x14, 0xf4, 0xfb, 0x29, 0xf0, 0xe1,
  0x1d, 0x03, 0x27, 0xec, 0x04, 0x2a, 0xee, 0xcc, 0x26, 0x36, 0x22, 0xf5,
  0xf7, 0x26, 0xf9, 0xc9, 0x1c, 0x15, 0x21, 0xf1, 0x03, 0x1c, 0xf0, 0xa9,
  0x1e, 0x23, 0x18, 0xce, 0x17, 0x18, 0xc2, 0xd7, 0x14, 0x21, 0x1c, 0xdc,
  0x0f, 0x0d, 0xc5, 0xdc, 0x26, 0x15, 0x1a, 0xe4, 0xfe, 0x04, 0xd4, 0xd1,
  0x20, 0x20, 0x13, 0xea, 0x04, 0x0f, 0xdc, 0xe8, 0x2b, 0x06, 0x10, 0xe1,
  0xfd, 0x09, 0xe1, 0xbe, 0x21, 0xff, 0x1b, 0xee, 0x01, 0x16, 0xd4, 0xbb,
  0x27, 0xfe, 0x1a, 0xe9, 0x04, 0x05, 0xf5, 0xb5, 0x1f, 0x02, 0x0f, 0xec,
  0x12, 0x03, 0xe6, 0x9f, 0x32, 0x15, 0x15, 0xc3, 0x16, 0x11, 0xac, 0xdf,
  0x2a, 0x13, 0x0c, 0xc9, 0x0d, 0x13, 0xc1, 0xc6, 0x26, 0x1f, 0x14, 0xd0,
  0xfc, 0x13, 0xc2, 0xce, 0x3c, 0xe7, 0x17, 0xe0, 0xf9, 0x0c, 0xcc, 0xcc,
  0x36, 0x01, 0x11, 0xee, 0xf5, 0x1d, 0xbe, 0xd0, 0x3a, 0x10, 0x10, 0xd8,
  0x00, 0x0f, 0xc4, 0xc9, 0x3f, 0x21, 0x1c, 0xe1, 0x05, 0x16, 0xd8, 0xb3,
  0x34, 0x1f, 0x12, 0xeb, 0x0b, 0x04, 0xe1, 0x9d, 0x2b, 0x05, 0x14, 0xcc,
  0x0b, 0xfc, 0x9b, 0xd1, 0x2c, 0xf8, 0x14, 0xd4, 0x05, 0x06, 0xb3, 0xce,
  0x29, 0xf6, 0x13, 0xe0, 0xf1, 0x02, 0xc2, 0xba, 0x3e, 0xef, 0xf9, 0xd4,
  0xf9, 0x0c, 0xc4, 0xc6, 0x45, 0xfb, 0x07, 0xe7, 0xf0, 0xfa, 0xc1, 0xb9,
  0x44, 0xf2, 0x19, 0xdf, 0xfd, 0x0a, 0xc1, 0xc8, 0x3f, 0x10, 0x26, 0xd5,
  0x00, 0x11, 0xe1, 0xad, 0x34, 0xfe, 0x0d, 0xdc, 0x0f, 0x01, 0xe3, 0x9c,
  0x26, 0x11, 0x03, 0xc2, 0x0c, 0x0c, 0x9e, 0xd3, 0x1f, 0x09, 0x0b, 0xd3,
  0x08, 0x19, 0xbb, 0xc5, 0x2a, 0x03, 0x00, 0xd5, 0xec, 0x11, 0xce, 0xb9,
  0x2e, 0x0d, 0x0e, 0xe8, 0xf7, 0x19, 0xcf, 0xb7, 0x37, 0xfe, 0x0d, 0xec,
  0xf0, 0xff, 0xd1, 0xb2, 0x3e, 0x0e, 0x0b, 0xd2, 0xff, 0x0b, 0xcb, 0xac,
  0x41, 0x1e, 0x0e, 0xe7, 0xfe, 0x00, 0xe0, 0x96, 0x3a, 0x11, 0x0c, 0xdf,
  0x05, 0x07, 0xe7, 0x97, 0x2a, 0x16, 0x2d, 0xba, 0x10, 0xfe, 0x98, 0xe0,
  0x21, 0x1a, 0x0f, 0xd3, 0x00, 0x06, 0xaa, 0xcd, 0x45, 0x15, 0x1b, 0xdc,
  0xf5, 0x01, 0xbb, 0xbe, 0x38, 0x1b, 0xf9, 0xd7, 0xf1, 0x02, 0xae, 0xc7,
  0x41, 0x04, 0x13, 0xd5, 0xf8, 0xf8, 0xb6, 0xbc, 0x37, 0x16, 0x02, 0xce,
  0x04, 0xfb, 0xc0, 0xad, 0x44, 0x07, 0x05, 0xdb, 0x09, 0x00, 0xe3, 0xbc,
  0x35, 0x23, 0x08, 0xc9, 0x05, 0xfb, 0xe3, 0x9f, 0x1a, 0x35, 0xf2, 0xb9,
  0x15, 0xef, 0x81, 0xdb, 0x1a, 0x35, 0x13, 0xc4, 0x0d, 0x08, 0xa3, 0xd1,
  0x37, 0x22, 0xfb, 0xd9, 0xf6, 0xf6, 0xa0, 0xc8, 0x38, 0x22, 0xfd, 0xe4,
  0xf7, 0x0f, 0xa5, 0xda, 0x37, 0x3c, 0x00, 0xdd, 0xfb, 0xf3, 0xae, 0xcd,
  0x37, 0x26, 0x0b, 0xd2, 0x0e, 0x17, 0xb2, 0xc2, 0x37, 0x27, 0x07, 0xda,
  0xfd, 0xf6, 0xb7, 0xa5, 0x36, 0x27, 0xfb, 0xd2, 0x04, 0x0b, 0xc5, 0xab,
  0x03, 0x5b, 0xf0, 0xbf, 0xfd, 0x33, 0x13, 0x45, 0xfd, 0x4f, 0xfc, 0xc1,
  0xfb, 0x25, 0x0c, 0x38, 0xf9, 0x3e, 0xfc, 0xa1, 0xfd, 0x1b, 0x25, 0xf5,
  0x00, 0x1f, 0xf6, 0xc0, 0xf4, 0x1b, 0x02, 0x06, 0xff, 0x14, 0xee, 0xb3,
  0xfc, 0x15, 0x20, 0xfa, 0xf6, 0x23, 0x03, 0xcd, 0x00, 0x16, 0x14, 0x1e,
  0xf2, 0x26, 0xf0, 0xad, 0xf5, 0x15, 0x1d, 0xf8, 0xea, 0x0b, 0x02, 0xc3,
  0xfb, 0x0e, 0x17, 0x1a, 0x01, 0x5a, 0x0f, 0xd2, 0x03, 0x27, 0x12, 0x64,
  0xf9, 0x2b, 0x09, 0xcb, 0xfd, 0x18, 0x11, 0x22, 0xed, 0x3f, 0x0b, 0xbe,
  0x07, 0x1c, 0x0f, 0x13, 0x01, 0x1d, 0x0c, 0xbe, 0xfc, 0x05, 0xfa, 0xf8,
  0xf4, 0x31, 0x00, 0xa9, 0xfe, 0x1b, 0x08, 0x22, 0xf6, 0x1f, 0x04, 0xc4,
  0x05, 0xfd, 0x02, 0x0e, 0xfe, 0x43, 0x03, 0xba, 0xfd, 0x0b, 0x19, 0x11,
  0xf9, 0x32, 0xf6, 0xc1, 0x04, 0xfa, 0x04, 0x29, 0x03, 0x51, 0x07, 0xc5,
  0x02, 0x10, 0xff, 0x6f, 0xf8, 0x56, 0xfb, 0xc7, 0xf4, 0x17, 0xfb, 0x53,
  0x01, 0x32, 0x04, 0xbc, 0x04, 0xfc, 0x0c, 0x0f, 0xf8, 0x23, 0xf0, 0xba,
  0xf5, 0x0f, 0xed, 0x20, 0xf1, 0x20, 0x00, 0xbd, 0xf9, 0xfb, 0x04, 0x0e,
  0xf2, 0x1d, 0xf9, 0xc2, 0xfa, 0x03, 0x01, 0x2e, 0xf0, 0x29, 0x03, 0xc7,
  0xfe, 0xfb, 0x18, 0x16, 0xf3, 0x27, 0xff, 0xd1, 0xf3, 0xf5, 0x0c, 0x39,
  0x01, 0x65, 0x25, 0xd6, 0x0c, 0x28, 0xf1, 0x72, 0xfa, 0x4f, 0x22, 0xca,
  0xfa, 0x13, 0x06, 0x3d, 0x01, 0x6f, 0x1c, 0xb1, 0xfa, 0x11, 0xf8, 0x2e,
  0xfb, 0x48, 0x1d, 0xb1, 0xfd, 0xf9, 0xed, 0x2f, 0xf9, 0x4d, 0x0f, 0xbc,
  0xfa, 0x14, 0xf6, 0x33, 0xef, 0x47, 0x03, 0xb9, 0xf9, 0xf9, 0xf6, 0x26,
  0xf9, 0x61, 0xfb, 0xb4, 0xf9, 0x03, 0x0b, 0x1f, 0xf5, 0x44, 0x02, 0xcd,
  0xfa, 0xfe, 0x02, 0x28, 0x07, 0x5a, 0x07, 0xcd, 0x03, 0x06, 0xf2, 0x7f,
  0xfc, 0x53, 0x15, 0xd3, 0xfa, 0x0c, 0xf7, 0x5d, 0xff, 0x3c, 0x16, 0xc4,
  0xfe, 0x11, 0xfa, 0x30, 0xfe, 0x37, 0x02, 0xb9, 0xed, 0x0c, 0xed, 0x37,
  0xf3, 0x3b, 0x04, 0xc8, 0xf7, 0xf9, 0xf5, 0x2d, 0xe9, 0x4b, 0x09, 0xcd,
  0xee, 0xf7, 0x00, 0x41, 0xf3, 0x38, 0x03, 0xc7, 0xf8, 0xf3, 0x0d, 0x34,
  0xf7, 0x48, 0x04, 0xd1, 0xf0, 0xf7, 0x08, 0x53, 0x08, 0x4c, 0x1d, 0xd4,
  0x03, 0x1e, 0xeb, 0x79, 0xfa, 0x5c, 0x18, 0xd2, 0xf6, 0x0f, 0x0d, 0x3c,
  0x02, 0x51, 0x1e, 0xc3, 0xf3, 0x13, 0x02, 0x1b, 0xf3, 0x4a, 0x1b, 0xcd,
  0x05, 0xfc, 0xf1, 0x31, 0xed, 0x43, 0x11, 0xd0, 0xf1, 0x04, 0xf1, 0x38,
  0xf8, 0x37, 0x00, 0xce, 0xfe, 0xef, 0xf7, 0x3e, 0xef, 0x56, 0x05, 0xdf,
  0xfc, 0xfa, 0x0c, 0x13, 0xf7, 0x4c, 0xfb, 0xde, 0xfd, 0xf3, 0xfe, 0x46,
  0x10, 0x32, 0x13, 0xdc, 0x0a, 0x10, 0xf9, 0x72, 0xfc, 0x5c, 0xfb, 0xe5,
  0xfd, 0xff, 0xe6, 0x5a, 0x0c, 0x2d, 0x0f, 0xd1, 0xfc, 0x00, 0xfc, 0x24,
  0xfc, 0x41, 0x04, 0xe5, 0xf4, 0x06, 0xe2, 0x4a, 0xf2, 0x3d, 0x0c, 0xe7,
  0xf7, 0x0a, 0xf7, 0x2e, 0x01, 0x34, 0xfc, 0xf6, 0xee, 0x00, 0x01, 0x57,
  0xe9, 0x43, 0x03, 0xe7, 0xf6, 0xf1, 0x0a, 0x2c, 0xec, 0x28, 0xff, 0xf9,
  0xef, 0xfa, 0x0d, 0x5c, 0x08, 0x45, 0x15, 0x00, 0x0b, 0x09, 0xe2, 0x60,
  0x07, 0x44, 0x0b, 0xe9, 0x01, 0x0e, 0x05, 0x3b, 0x07, 0x4c, 0x16, 0xe8,
  0xfe, 0x13, 0x07, 0x28, 0xfd, 0x3c, 0x08, 0xef, 0x0d, 0x08, 0xe9, 0x31,
  0xea, 0x50, 0x08, 0xfa, 0xfb, 0x04, 0xf1, 0x2d, 0xf5, 0x30, 0xff, 0xed,
  0x02, 0xf4, 0xff, 0x3f, 0xed, 0x4f, 0xfb, 0xfd, 0xff, 0xe9, 0x0e, 0x24,
  0xfe, 0x28, 0xfc, 0x01, 0x00, 0xfd, 0xfe, 0x54, 0x2a, 0xe7, 0xff, 0xff,
  0x04, 0x00, 0x00, 0x00, 0x20, 0x00, 0x00, 0x00, 0xd5, 0xc2, 0xff, 0xff,
  0x7a, 0xed, 0xff, 0xff, 0x2d, 0x0b, 0x00, 0x00, 0xa9, 0x9e, 0xff, 0xff,
  0xc5, 0x8d, 0xfb, 0xff, 0xa1, 0x42, 0xff, 0xff, 0x6f, 0x17, 0x00, 0x00,
  0xac, 0xea, 0xff, 0xff, 0x56, 0xe7, 0xff, 0xff, 0x04, 0x00, 0x00, 0x00,
  0x00, 0x18, 0x00, 0x00, 0x05, 0x01, 0xff, 0x0a, 0x03, 0xfc, 0xfa, 0xf9,
  0xf2, 0x05, 0x06, 0xfd, 0xfa, 0xfb, 0x01, 0xf7, 0xfe, 0xf1, 0x00, 0xf9,
  0x04, 0xfd, 0xf8, 0xfa, 0x11, 0x0e, 0x0a, 0xfd, 0xfa, 0xf6, 0xcd, 0xc8,
  0xcd, 0x21, 0x1d, 0x18, 0xc8, 0xd3, 0xcd, 0x0a, 0x0a, 0x12, 0xfc, 0xf7,
  0x04, 0xf8, 0xff, 0x01, 0x03, 0xfb, 0x00, 0x0f, 0x10, 0x15, 0xd7, 0xd8,
  0xd2, 0xfe, 0xfa, 0xfa, 0x16, 0x08, 0x16, 0xdb, 0xe0, 0xd7, 0x09, 0x06,
  0x0a, 0x04, 0xfd, 0x02, 0x06, 0x0c, 0x0d, 0x16, 0x0c, 0x13, 0x81, 0x8c,
  0x8b, 0x26, 0x2a, 0x28, 0xd8, 0xdc, 0xdc, 0x05, 0x06, 0xfe, 0x0c, 0x18,
  0x0c, 0xef, 0xf0, 0xf1, 0x05, 0xff, 0xfe, 0x0a, 0x08, 0x03, 0xfb, 0xf1,
  0xf2, 0xc3, 0xc9, 0xc4, 0x25, 0x2c, 0x25, 0xe8, 0xe7, 0xda, 0xe9, 0xec,
  0xf2, 0x0a, 0x13, 0x0b, 0xfd, 0x0a, 0x01, 0x17, 0x12, 0x0f, 0xc7, 0xc3,
  0xbf, 0x05, 0xf9, 0x04, 0xfb, 0xf9, 0x07, 0xf5, 0xf6, 0xf5, 0x13, 0x0e,
  0x15, 0xf1, 0xf7, 0xf8, 0x0b, 0x00, 0x03, 0xef, 0xec, 0xf6, 0x1b, 0x18,
  0x20, 0xb0, 0xaa, 0xaf, 0x0e, 0x13, 0x14, 0x10, 0x06, 0x07, 0xb8, 0xbd,
  0xb5, 0x1d, 0x1d, 0x1d, 0xfb, 0xfc, 0xf9, 0x16, 0x0d, 0x14, 0xf6, 0xf7,
  0xf8, 0xfc, 0xf2, 0xfb, 0x01, 0x0b, 0xff, 0xfb, 0xf8, 0xf7, 0x00, 0x0f,
  0x04, 0x01, 0xfa, 0x05, 0x07, 0x14, 0x0d, 0xea, 0xe9, 0xf1, 0xfe, 0x09,
  0x09, 0xe2, 0xdd, 0xde, 0x00, 0xfe, 0x04, 0x01, 0x04, 0x08, 0xdb, 0xd9,
  0xcd, 0x02, 0x01, 0x01, 0xfe, 0x0a, 0x09, 0x08, 0x05, 0x09, 0x0c, 0x01,
  0x06, 0xfd, 0x02, 0x07, 0xfc, 0xf7, 0xfe, 0xfc, 0x08, 0x00, 0x01, 0xfc,
  0x00, 0x04, 0x0c, 0x06, 0x04, 0x09, 0x0c, 0xfb, 0xf5, 0xf6, 0x09, 0x08,
  0xfa, 0x03, 0x06, 0xfd, 0x0e, 0x0d, 0x01, 0xf1, 0xea, 0xe3, 0x00, 0xf8,
  0xf8, 0xfe, 0xfc, 0xf8, 0x08, 0x0b, 0x06, 0x08, 0x0c, 0x0d, 0x0a, 0x13,
  0x0b, 0x01, 0x02, 0x0b, 0xfe, 0xff, 0x06, 0x14, 0x12, 0x06, 0xfe, 0xfa,
  0xf6, 0x0c, 0x12, 0x0a, 0x04, 0x00, 0x0e, 0x00, 0xf3, 0xf8, 0x04, 0x01,
  0x01, 0x0e, 0x11, 0x05, 0x0b, 0x0c, 0x0e, 0xff, 0x01, 0xfc, 0x01, 0x00,
  0x00, 0x06, 0x05, 0x0d, 0x09, 0x0b, 0x02, 0x07, 0x0c, 0xfd, 0x01, 0x09,
  0x08, 0x06, 0x10, 0x03, 0x01, 0x05, 0x0e, 0x01, 0xff, 0x08, 0xfb, 0xf9,
  0x00, 0x09, 0x0b, 0x0f, 0x01, 0x04, 0xfd, 0xfe, 0xfd, 0xf3, 0x00, 0xfb,
  0x0a, 0x0a, 0x05, 0xff, 0x06, 0x09, 0x06, 0x0d, 0x06, 0x09, 0x05, 0x00,
  0x05, 0x08, 0x08, 0x0b, 0xfe, 0xfe, 0x03, 0xfa, 0x04, 0x07, 0x0d, 0x10,
  0x06, 0x02, 0x10, 0x0e, 0xfe, 0x01, 0x0a, 0xff, 0xfa, 0xff, 0xfc, 0x03,
  0xfd, 0x07, 0x0a, 0x02, 0x03, 0x02, 0x00, 0xfa, 0xf4, 0xf8, 0x0c, 0x03,
  0x08, 0x0d, 0x0e, 0x16, 0x12, 0x06, 0x07, 0x09, 0x06, 0x07, 0x04, 0x08,
  0x03, 0x02, 0xfd, 0x03, 0x0d, 0x0c, 0x12, 0xf5, 0xee, 0xf5, 0x0d, 0x0d,
  0x02, 0xff, 0x06, 0x03, 0x0b, 0x01, 0xfc, 0x07, 0xfc, 0xfb, 0xfc, 0x03,
  0xfe, 0x09, 0xff, 0x0d, 0xff, 0xfd, 0xfe, 0xfe, 0xfb, 0x04, 0x01, 0xff,
  0xf9, 0x06, 0x03, 0x02, 0x08, 0xfc, 0x09, 0x01, 0xf6, 0xfe, 0xf9, 0x04,
  0x04, 0x08, 0x03, 0x03, 0x0d, 0x12, 0x0e, 0xf1, 0xfb, 0xf7, 0x08, 0x09,
  0x07, 0xf1, 0xe9, 0xe7, 0xee, 0xe8, 0xea, 0x03, 0x00, 0xfa, 0x09, 0x04,
  0xfd, 0x01, 0x05, 0x04, 0xfe, 0xfa, 0xfe, 0x09, 0x0a, 0x0b, 0x06, 0xfa,
  0xfb, 0x13, 0x13, 0x17, 0xfb, 0xfa, 0xff, 0xf5, 0xf4, 0xf5, 0xec, 0xea,
  0xea, 0xfd, 0xf8, 0x00, 0x02, 0x0c, 0x05, 0xf6, 0xf9, 0xf7, 0x0c, 0x14,
  0x0f, 0xca, 0xc1, 0xc8, 0xe4, 0xda, 0xdd, 0xfd, 0xf7, 0x00, 0x0b, 0x08,
  0x0c, 0x04, 0xfe, 0x03, 0x03, 0x04, 0xfb, 0x00, 0x09, 0x07, 0x07, 0xf9,
  0xfe, 0x0e, 0x10, 0x10, 0xff, 0xf5, 0xf7, 0xb8, 0xb6, 0xb5, 0xde, 0xe9,
  0xe9, 0x17, 0x0b, 0x0d, 0xf5, 0xee, 0xef, 0xf2, 0xfe, 0xfd, 0x14, 0x11,
  0x0f, 0xc4, 0xbb, 0xbc, 0xcc, 0xc5, 0xcb, 0xd4, 0xd8, 0xe0, 0x13, 0x1a,
  0x15, 0xe8, 0xf2, 0xea, 0x00, 0x02, 0xf8, 0xf7, 0xf6, 0xf5, 0xfc, 0xfc,
  0xfb, 0x17, 0x14, 0x0e, 0xef, 0xf7, 0xf4, 0xb3, 0xb5, 0xb2, 0xfc, 0xf1,
  0xf5, 0x1d, 0x1a, 0x1b, 0xec, 0xe1, 0xe2, 0x01, 0xff, 0xfa, 0x04, 0xfb,
  0x03, 0xf4, 0x00, 0xf6, 0xdf, 0xd8, 0xdc, 0xc1, 0xba, 0xc5, 0x1a, 0x13,
  0x1a, 0xe8, 0xed, 0xe0, 0x0b, 0x08, 0x00, 0xc9, 0xcf, 0xc5, 0x05, 0x12,
  0x0f, 0x1a, 0x0e, 0x0e, 0xe2, 0xe4, 0xe0, 0xaa, 0xa5, 0xa5, 0xfd, 0xf5,
  0xf9, 0x0c, 0x11, 0x0c, 0xf8, 0xf8, 0xfc, 0x01, 0xf8, 0xfb, 0x00, 0x0b,
  0x05, 0x04, 0x04, 0x02, 0xf3, 0xed, 0xf1, 0xe6, 0xe7, 0xe9, 0x0d, 0x0b,
  0x0c, 0xec, 0xeb, 0xef, 0x0c, 0x02, 0x0d, 0xd0, 0xce, 0xc6, 0x0c, 0x0b,
  0x14, 0x12, 0x08, 0x10, 0x06, 0xfe, 0x03, 0xc3, 0xbf, 0xc0, 0xfb, 0xfe,
  0xff, 0xf9, 0xf8, 0xee, 0x1a, 0x18, 0x12, 0xd7, 0xe1, 0xdc, 0x05, 0x08,
  0x11, 0x05, 0x00, 0xfb, 0xf3, 0xf5, 0xfc, 0xf3, 0xf2, 0xf8, 0x0a, 0x14,
  0x17, 0xf8, 0xf5, 0xf9, 0xfd, 0xff, 0xf7, 0xcd, 0xd2, 0xd5, 0xf0, 0xec,
  0xf5, 0x12, 0x0d, 0x13, 0x00, 0xfb, 0xfa, 0xd5, 0xd2, 0xd4, 0xfb, 0xf1,
  0xf1, 0xe1, 0xe1, 0xec, 0x01, 0x08, 0x0b, 0xe2, 0xec, 0xe4, 0xf0, 0xef,
  0xf3, 0xff, 0xfa, 0x02, 0xf8, 0xf0, 0xeb, 0xfb, 0xfa, 0xf7, 0xf7, 0xf7,
  0xf2, 0xf6, 0xff, 0x01, 0xe6, 0xdd, 0xec, 0x00, 0xfb, 0xf9, 0xfa, 0x0a,
  0x04, 0x0d, 0x0b, 0x12, 0xfc, 0x01, 0x08, 0xf4, 0xf2, 0xf5, 0xf5, 0xf4,
  0xef, 0xf4, 0xe6, 0xf7, 0xd5, 0xd4, 0xd4, 0xda, 0xe5, 0xd8, 0xc6, 0xcf,
  0xd7, 0xf1, 0xff, 0xf2, 0x0d, 0x11, 0x15, 0x0a, 0x0c, 0x07, 0x0e, 0x17,
  0x06, 0xfc, 0x02, 0xfa, 0xe7, 0xdc, 0xdb, 0xed, 0xe5, 0xe7, 0x0d, 0x03,
  0x03, 0x16, 0x14, 0x14, 0x07, 0x07, 0x06, 0x05, 0x04, 0x01, 0xfd, 0xfb,
  0x0b, 0x05, 0x03, 0x0b, 0xee, 0xf6, 0xf0, 0xd6, 0xd6, 0xd5, 0xd5, 0xdf,
  0xd8, 0xf7, 0xfa, 0xf3, 0xe6, 0xe6, 0xf2, 0xfd, 0xed, 0xfc, 0x06, 0x01,
  0x04, 0x09, 0x0d, 0x0d, 0xc7, 0xc1, 0xc8, 0xec, 0xf9, 0xfb, 0xf5, 0xf6,
  0xf5, 0xff, 0x11, 0x10, 0x0a, 0x04, 0x04, 0x09, 0x01, 0x00, 0x14, 0x10,
  0x09, 0x0a, 0x09, 0x0f, 0x00, 0xf5, 0x00, 0xc2, 0xcd, 0xc8, 0xde, 0xdb,
  0xdc, 0x03, 0x0c, 0x0b, 0xed, 0xe8, 0xe9, 0xef, 0xed, 0xe3, 0xf0, 0xf5,
  0xf4, 0x01, 0xff, 0x09, 0xb4, 0xba, 0xb9, 0xfc, 0x09, 0x04, 0x0a, 0x05,
  0xff, 0xf7, 0xfb, 0xfa, 0xf7, 0xea, 0xea, 0x0a, 0x0f, 0x02, 0x05, 0x15,
  0x07, 0x13, 0x05, 0x0f, 0xe2, 0xeb, 0xeb, 0xdc, 0xcc, 0xd1, 0xfa, 0x08,
  0xf8, 0x09, 0x0a, 0x0b, 0xfc, 0xfb, 0xf4, 0xf8, 0xf0, 0xef, 0xfc, 0xf7,
  0xf3, 0xd8, 0xd8, 0xe2, 0xbd, 0xbf, 0xb3, 0x09, 0x0a, 0x06, 0xf7, 0xfa,
  0x00, 0xe9, 0xf0, 0xeb, 0xf0, 0xee, 0xe8, 0x00, 0xf6, 0xf3, 0x0b, 0x09,
  0x09, 0x12, 0x0f, 0x18, 0xe5, 0xe3, 0xed, 0xde, 0xe0, 0xdb, 0x11, 0x0e,
  0x0d, 0x04, 0x10, 0x0a, 0xfa, 0x04, 0xfb, 0x05, 0x04, 0xf8, 0x03, 0xfd,
  0xf4, 0xd9, 0xdc, 0xdd, 0xcd, 0xc2, 0xcb, 0x0f, 0x12, 0x05, 0xf1, 0xf0,
  0xf4, 0xe0, 0xda, 0xe1, 0xfd, 0x02, 0xfd, 0xf0, 0xf0, 0x00, 0xf1, 0xf6,
  0xf5, 0x03, 0xfa, 0xff, 0xd7, 0xd5, 0xd0, 0xeb, 0xea, 0xf6, 0x13, 0x16,
  0x0a, 0x10, 0x0e, 0x0c, 0x07, 0x13, 0x03, 0x07, 0xff, 0x10, 0x04, 0x00,
  0xf6, 0xdd, 0xd2, 0xda, 0xee, 0xf5, 0xee, 0x1a, 0x1f, 0x16, 0x08, 0x05,
  0x05, 0x99, 0x91, 0x9d, 0x0b, 0x02, 0x04, 0x08, 0x01, 0x08, 0xfe, 0xfb,
  0x04, 0xf9, 0xfc, 0xf6, 0xab, 0xae, 0xa6, 0xf6, 0xf9, 0xfb, 0x12, 0x05,
  0x0f, 0x0f, 0xff, 0x0b, 0x08, 0x17, 0x11, 0x09, 0x12, 0x12, 0x05, 0xfc,
  0x01, 0xcb, 0xbf, 0xc9, 0x09, 0xfb, 0x03, 0x14, 0x10, 0x17, 0xf6, 0xf5,
  0xfc, 0x81, 0x85, 0x8d, 0x03, 0x07, 0xfb, 0x07, 0xf4, 0x00, 0x00, 0xfc,
  0x03, 0xf1, 0xf1, 0xf5, 0x8a, 0x86, 0x85, 0x0d, 0x13, 0x11, 0x05, 0x02,
  0x04, 0x0b, 0x05, 0x09, 0x0e, 0x0b, 0x0b, 0x09, 0x15, 0x15, 0x0b, 0x11,
  0x00, 0xc6, 0xbe, 0xbe, 0xfe, 0x05, 0x00, 0x08, 0x09, 0x0c, 0xe8, 0xe4,
  0xde, 0x99, 0x9a, 0xa1, 0x05, 0xfb, 0xff, 0x09, 0x15, 0x0b, 0x07, 0x11,
  0x0a, 0xeb, 0xf5, 0xf7, 0xd4, 0xc3, 0xc7, 0xfd, 0x0d, 0x05, 0xfa, 0xf6,
  0xfc, 0x0a, 0x02, 0xfa, 0x0d, 0x0f, 0x0b, 0x14, 0x11, 0x14, 0x0a, 0x0f,
  0x02, 0xbb, 0xbf, 0xc9, 0x01, 0x00, 0x03, 0x10, 0x0c, 0x03, 0xc9, 0xca,
  0xbd, 0xcc, 0xcb, 0xca, 0x0d, 0x0e, 0x10, 0x11, 0x12, 0x0f, 0x06, 0x02,
  0x14, 0xfa, 0xf0, 0xfe, 0xef, 0xe8, 0xf0, 0xfe, 0x0d, 0x06, 0x04, 0x0f,
  0x08, 0xfe, 0xfc, 0x0c, 0x0a, 0xfd, 0x0c, 0x0a, 0x13, 0x09, 0xde, 0xe2,
  0xe6, 0xb1, 0xb1, 0xad, 0x0a, 0x09, 0x04, 0x02, 0xf8, 0x07, 0xec, 0xe9,
  0xea, 0xb1, 0xb8, 0xb8, 0x17, 0x10, 0x12, 0x01, 0x0e, 0x04, 0x13, 0x06,
  0x09, 0x06, 0x03, 0xfe, 0xf6, 0xf8, 0xfd, 0x00, 0x08, 0x02, 0x0b, 0x0a,
  0x09, 0x01, 0x05, 0xfc, 0x06, 0x08, 0x03, 0xdf, 0xe5, 0xe9, 0xaf, 0xbe,
  0xb7, 0xae, 0xab, 0xb7, 0x03, 0x0d, 0xff, 0x01, 0xff, 0x08, 0xeb, 0xe4,
  0xf2, 0xa9, 0xac, 0xae, 0x13, 0x0f, 0x0b, 0x00, 0x09, 0x0a, 0x13, 0x0f,
  0x05, 0x0e, 0x08, 0xff, 0xfb, 0xfb, 0xff, 0x0e, 0x08, 0xfc, 0xf5, 0xf0,
  0xf1, 0xee, 0xe8, 0xeb, 0x03, 0xf4, 0xfa, 0xcd, 0xd1, 0xd1, 0xc0, 0xbe,
  0xb8, 0x01, 0xfb, 0xfc, 0x03, 0xf5, 0x02, 0xf7, 0xf4, 0xfb, 0xf1, 0xe9,
  0xec, 0xc8, 0xcc, 0xd4, 0x06, 0x0c, 0xfd, 0x0f, 0x0c, 0x15, 0x0c, 0x09,
  0x06, 0x10, 0x06, 0x10, 0x0c, 0x0e, 0x0b, 0xfe, 0x01, 0x08, 0x85, 0x87,
  0x8b, 0xe5, 0xe2, 0xe7, 0xfb, 0x02, 0xf6, 0xbe, 0xbe, 0xb8, 0xdf, 0xdd,
  0xdd, 0x01, 0xfc, 0x01, 0x01, 0xf4, 0xf7, 0xf9, 0xfd, 0x04, 0xfa, 0xff,
  0xfc, 0xe8, 0xe1, 0xe9, 0xfd, 0x06, 0x0b, 0x11, 0x12, 0x06, 0x0d, 0x02,
  0x0e, 0x17, 0x11, 0x06, 0x0f, 0x02, 0x0b, 0xba, 0xc3, 0xc8, 0x8d, 0x8f,
  0x8b, 0x06, 0x0b, 0x0e, 0x07, 0x06, 0x0a, 0xb5, 0xb5, 0xb6, 0x07, 0x07,
  0xf9, 0x07, 0xfa, 0x03, 0xfd, 0x07, 0x00, 0x00, 0xfc, 0xf4, 0xfe, 0xfb,
  0x0c, 0xf6, 0xef, 0xf7, 0xf3, 0xfd, 0xf6, 0xff, 0x08, 0x04, 0x12, 0x02,
  0x0e, 0x09, 0x0d, 0x0b, 0x05, 0xfd, 0xfb, 0xa0, 0x9e, 0xa1, 0xc4, 0xb8,
  0xc7, 0x1e, 0x14, 0x1a, 0x06, 0x02, 0x05, 0xdc, 0xcc, 0xcc, 0x04, 0xff,
  0xf1, 0xfd, 0x09, 0x01, 0xf8, 0x0a, 0x03, 0x0a, 0xfc, 0x00, 0x08, 0xfa,
  0xff, 0x03, 0xf4, 0xf4, 0x02, 0xfb, 0x06, 0xfe, 0xff, 0xff, 0x05, 0x0a,
  0x03, 0x02, 0xf5, 0xff, 0xe3, 0xea, 0xe6, 0xbb, 0xbc, 0xbe, 0xf9, 0xeb,
  0xfd, 0x15, 0x14, 0x0c, 0xff, 0x06, 0x01, 0xd6, 0xcf, 0xd9, 0xfb, 0xfc,
  0xf9, 0x05, 0xfc, 0x04, 0xee, 0xf9, 0xe9, 0x0b, 0x06, 0x0f, 0xf3, 0xf4,
  0xe4, 0xfa, 0xed, 0xf9, 0xfe, 0xfb, 0xfa, 0xf1, 0xe8, 0xeb, 0xe9, 0xee,
  0xf5, 0xdc, 0xd5, 0xdd, 0xc2, 0xc9, 0xcb, 0xfa, 0x0a, 0x0b, 0x03, 0x0f,
  0x10, 0x01, 0xf8, 0xf7, 0xea, 0xf6, 0xf0, 0xe5, 0xdd, 0xde, 0xce, 0xc7,
  0xc2, 0xe0, 0xdf, 0xdf, 0xe8, 0xf3, 0xee, 0xe4, 0xeb, 0xe8, 0x06, 0x05,
  0x08, 0xec, 0xeb, 0xee, 0xfb, 0xff, 0x0c, 0x03, 0x04, 0x05, 0x00, 0xf7,
  0xfb, 0x05, 0x05, 0x00, 0xae, 0xae, 0xad, 0x89, 0x86, 0x8f, 0xfa, 0xfa,
  0x02, 0x17, 0x13, 0x21, 0x0b, 0x14, 0x11, 0x13, 0x17, 0x12, 0xcc, 0xc5,
  0xd3, 0xa3, 0xaf, 0xaa, 0xe0, 0xdd, 0xdb, 0xe7, 0xf6, 0xf4, 0xf2, 0xe6,
  0xf1, 0xc6, 0xcb, 0xd5, 0x04, 0x02, 0xfc, 0x0a, 0x00, 0xff, 0x0e, 0x0b,
  0x08, 0x15, 0x1a, 0x1f, 0x05, 0xfb, 0xfd, 0x81, 0x83, 0x82, 0x95, 0x96,
  0xa1, 0xfb, 0x01, 0xfd, 0x0e, 0x10, 0x14, 0x1e, 0x18, 0x0f, 0x0d, 0x0c,
  0x0e, 0xb4, 0xbd, 0xba, 0xe8, 0xee, 0xe3, 0xfa, 0xee, 0xfb, 0xc4, 0xc3,
  0xc4, 0xc5, 0xca, 0xc6, 0xf2, 0xeb, 0xf2, 0xe0, 0xe1, 0xeb, 0x0d, 0x0d,
  0x17, 0x0a, 0x0e, 0x08, 0x1e, 0x1e, 0x15, 0xe7, 0xed, 0xec, 0xa6, 0xb4,
  0xab, 0x93, 0x90, 0x91, 0x21, 0x27, 0x2a, 0x06, 0x06, 0x15, 0x0e, 0x10,
  0x06, 0xeb, 0xe1, 0xeb, 0xfa, 0xf9, 0xff, 0xf5, 0xf3, 0xee, 0xdc, 0xdb,
  0xda, 0xc6, 0xce, 0xc4, 0xea, 0xe9, 0xed, 0xec, 0xeb, 0xea, 0x07, 0x06,
  0x05, 0xf6, 0x03, 0x07, 0x10, 0x18, 0x19, 0x19, 0x17, 0x14, 0xfa, 0xfb,
  0x0a, 0x89, 0x8e, 0x99, 0xe5, 0xe7, 0xf3, 0xfa, 0xfc, 0x00, 0x02, 0x08,
  0xf6, 0xfc, 0xf8, 0x07, 0x01, 0x0c, 0xfd, 0xfa, 0x08, 0x0a, 0xe2, 0xdf,
  0xe1, 0xce, 0xce, 0xcf, 0xc6, 0xbc, 0xc6, 0xd3, 0xdd, 0xe4, 0x0e, 0x11,
  0x0a, 0x0f, 0x05, 0x0e, 0x03, 0x00, 0x0b, 0xfd, 0x03, 0xf8, 0x19, 0x10,
  0x0f, 0xe4, 0xe8, 0xe7, 0xe3, 0xea, 0xf1, 0xfa, 0xf4, 0xf8, 0x0f, 0x00,
  0x03, 0x01, 0x03, 0x08, 0xfd, 0x0c, 0x0d, 0x04, 0xf9, 0xfe, 0x04, 0xf5,
  0x02, 0xdc, 0xe0, 0xd7, 0xc0, 0xc1, 0xb6, 0xde, 0xe6, 0xd9, 0xed, 0xe9,
  0xe5, 0x05, 0x04, 0x00, 0x05, 0x02, 0xff, 0x16, 0x23, 0x13, 0x02, 0x08,
  0x06, 0x00, 0xfb, 0xff, 0x04, 0xff, 0x01, 0x0b, 0x06, 0x14, 0xf8, 0x01,
  0xfd, 0x01, 0x00, 0xff, 0x05, 0x08, 0x08, 0xfc, 0x09, 0x0a, 0x0f, 0x0a,
  0x0d, 0xf8, 0xfd, 0x00, 0xd2, 0xd2, 0xd7, 0xe3, 0xde, 0xe7, 0xd4, 0xc8,
  0xd3, 0xed, 0xfd, 0xed, 0xee, 0xe1, 0xeb, 0x06, 0xfe, 0x06, 0x06, 0x03,
  0x02, 0x06, 0x0b, 0x08, 0x00, 0x0c, 0x11, 0x01, 0x09, 0x0a, 0x06, 0x02,
  0x14, 0x11, 0x03, 0x10, 0xf7, 0x02, 0x04, 0xfc, 0x04, 0x05, 0x09, 0x09,
  0x10, 0x03, 0x06, 0x04, 0x10, 0x0c, 0x06, 0x09, 0x03, 0x07, 0xd6, 0xe5,
  0xd9, 0xfe, 0xfc, 0x01, 0xd5, 0xdb, 0xda, 0xff, 0x00, 0x01, 0x14, 0x0b,
  0x11, 0x0c, 0x06, 0x07, 0x0f, 0x08, 0x0e, 0x01, 0x08, 0xf7, 0xf6, 0xf3,
  0x04, 0x0e, 0x09, 0x0c, 0xfb, 0xf4, 0xff, 0x0c, 0x0e, 0x02, 0x07, 0x08,
  0x07, 0x09, 0x06, 0x06, 0x06, 0x0c, 0x10, 0x0b, 0x04, 0x06, 0xfb, 0xf3,
  0xfb, 0xf7, 0xf4, 0xee, 0xfd, 0xfe, 0xff, 0x0a, 0x12, 0x0c, 0x1c, 0x13,
  0x12, 0x03, 0x0e, 0x11, 0x13, 0x13, 0x0e, 0x03, 0x10, 0x0d, 0xe7, 0xeb,
  0xef, 0xe4, 0xf2, 0xe8, 0xdf, 0xe0, 0xe6, 0x11, 0x0c, 0x06, 0x0e, 0x09,
  0x0d, 0xf6, 0x02, 0x01, 0x0a, 0x0f, 0x17, 0x0f, 0x0d, 0x0a, 0x03, 0x02,
  0xfa, 0x0a, 0x04, 0x06, 0x0b, 0x0b, 0x09, 0xf0, 0xfa, 0xfb, 0xfc, 0x07,
  0x0b, 0x07, 0xf7, 0x06, 0x13, 0x1c, 0x16, 0xf5, 0xee, 0xfd, 0xe4, 0xe8,
  0xe7, 0xbd, 0xc1, 0xc6, 0xce, 0xcc, 0xd5, 0x01, 0x05, 0x09, 0x1a, 0x14,
  0x16, 0x04, 0x10, 0x0a, 0x08, 0xfd, 0x09, 0xfc, 0x02, 0xf4, 0x04, 0x02,
  0xf9, 0xf0, 0xf8, 0xfb, 0x14, 0x0c, 0x10, 0xf6, 0xfa, 0xf4, 0xf9, 0xf9,
  0x04, 0xfa, 0x09, 0x09, 0xf8, 0xf2, 0xff, 0x0a, 0x0b, 0x0c, 0xdf, 0xda,
  0xdb, 0xb2, 0xa6, 0xa1, 0xea, 0xe2, 0xde, 0xfc, 0xf3, 0xf0, 0x05, 0x12,
  0x03, 0x14, 0x07, 0x12, 0x07, 0x06, 0xfe, 0x0b, 0xf9, 0x04, 0x00, 0x02,
  0x10, 0x0b, 0x04, 0x04, 0x0e, 0x11, 0x0c, 0x05, 0xf7, 0xfa, 0x11, 0x07,
  0x0f, 0xec, 0xee, 0xf5, 0xd6, 0xd9, 0xd0, 0xf9, 0xf9, 0xf9, 0xfa, 0x01,
  0xf2, 0xb4, 0xb9, 0xb7, 0xf7, 0x00, 0xfa, 0xf8, 0xf3, 0xf2, 0x07, 0x0d,
  0x11, 0x03, 0x00, 0x06, 0x01, 0x02, 0x0a, 0x10, 0x04, 0x14, 0x09, 0x01,
  0xfa, 0x05, 0xff, 0x08, 0xf5, 0x02, 0x05, 0xf8, 0x07, 0xfb, 0xe9, 0xe0,
  0xec, 0xcd, 0xcb, 0xce, 0xb5, 0xb3, 0xab, 0x15, 0x0d, 0x18, 0x0e, 0x19,
  0x09, 0xbf, 0xbd, 0xc1, 0xec, 0xf2, 0xfd, 0x05, 0xfb, 0xfa, 0xf5, 0xf8,
  0xfe, 0xf2, 0xff, 0xfd, 0x03, 0xfc, 0x03, 0xf5, 0xf1, 0xff, 0xed, 0xef,
  0xde, 0x02, 0x05, 0xfc, 0x07, 0x03, 0x05, 0xfa, 0xfc, 0x01, 0xc3, 0xd0,
  0xc6, 0xcc, 0xc9, 0xc3, 0xc2, 0xba, 0xbb, 0x12, 0x12, 0x16, 0x0f, 0x0e,
  0x00, 0xdb, 0xe4, 0xde, 0xf3, 0xf0, 0xec, 0xdb, 0xd1, 0xdb, 0x02, 0xf4,
  0xf8, 0xe6, 0xe5, 0xea, 0xff, 0xf2, 0xf2, 0xf0, 0xf2, 0xf5, 0xe5, 0xe9,
  0xe8, 0xf8, 0xf6, 0xf3, 0xf9, 0xf9, 0xf7, 0x12, 0x18, 0x09, 0xd5, 0xd4,
  0xce, 0xb3, 0xb2, 0xba, 0xb6, 0xaf, 0xb3, 0xe1, 0xe3, 0xd9, 0xfe, 0xf5,
  0x04, 0xfc, 0xf0, 0xea, 0xac, 0xa5, 0xa4, 0xb5, 0xaf, 0xb4, 0xd4, 0xdc,
  0xd2, 0xe0, 0xd3, 0xd4, 0xf8, 0xf6, 0xe9, 0xec, 0xeb, 0xf5, 0xdf, 0xe4,
  0xef, 0xdf, 0xe3, 0xd5, 0xce, 0xd1, 0xd0, 0xe2, 0xe7, 0xdd, 0xef, 0xe4,
  0xef, 0xff, 0x01, 0xff, 0x04, 0x0b, 0xfd, 0x0a, 0x03, 0xff, 0x0d, 0x04,
  0x09, 0x0b, 0x11, 0x09, 0x05, 0x0a, 0x08, 0xc9, 0xc6, 0xc0, 0xcb, 0xcc,
  0xc4, 0xd0, 0xd7, 0xce, 0xeb, 0xed, 0xed, 0xf2, 0xf8, 0xf4, 0xe8, 0xf3,
  0xf0, 0xf8, 0xf9, 0xf4, 0xf8, 0xfc, 0xf0, 0x0e, 0x03, 0x0e, 0x18, 0x0d,
  0x13, 0x1a, 0x0d, 0x14, 0x0f, 0x0a, 0x09, 0xff, 0x0b, 0xfe, 0x0a, 0x18,
  0x0f, 0xf9, 0x04, 0x03, 0x16, 0x16, 0x12, 0xfd, 0xf9, 0x04, 0xe9, 0xe9,
  0xee, 0xb9, 0xc3, 0xc0, 0xee, 0xec, 0xe8, 0xf3, 0xe7, 0xf0, 0xee, 0xef,
  0xee, 0xf1, 0xe6, 0xeb, 0x02, 0x05, 0x01, 0x20, 0x17, 0x16, 0x16, 0x05,
  0x0d, 0x0d, 0x13, 0x12, 0x09, 0x0b, 0x07, 0x0f, 0x16, 0x0e, 0xfe, 0xfd,
  0x02, 0xf6, 0xec, 0xef, 0x02, 0x03, 0x05, 0xfd, 0x07, 0x03, 0xed, 0xf3,
  0xea, 0xb6, 0xb8, 0xbb, 0xca, 0xc8, 0xcb, 0xd0, 0xdc, 0xd1, 0xfa, 0xfb,
  0xfb, 0xff, 0x08, 0x07, 0x15, 0x1a, 0x21, 0x0f, 0x17, 0x11, 0x0e, 0x06,
  0x0a, 0x02, 0xfd, 0x02, 0x0c, 0x00, 0x0a, 0xf2, 0xef, 0xfc, 0xf8, 0xee,
  0xef, 0xef, 0xfc, 0xf0, 0x10, 0x00, 0x03, 0x0c, 0x04, 0x07, 0x0d, 0x05,
  0x0a, 0xc4, 0xc9, 0xc5, 0xb5, 0xb3, 0xab, 0xda, 0xe2, 0xdd, 0xc9, 0xd2,
  0xd7, 0xfd, 0xfd, 0xfe, 0x11, 0x1e, 0x19, 0xf8, 0xf3, 0xfe, 0xc3, 0xc5,
  0xc0, 0xaa, 0xa7, 0xad, 0x90, 0x96, 0x98, 0x8f, 0x93, 0x97, 0xcb, 0xcf,
  0xcc, 0xe6, 0xf0, 0xf7, 0x06, 0x0a, 0x17, 0x06, 0x0d, 0x05, 0x07, 0xff,
  0x0a, 0xf1, 0xf2, 0xe9, 0xbc, 0xbc, 0xb7, 0xbe, 0xbb, 0xc2, 0xc5, 0xc7,
  0xbd, 0xc3, 0xba, 0xc3, 0x9b, 0x94, 0x9b, 0x81, 0x84, 0x90, 0x9a, 0x9f,
  0x9d, 0xd5, 0xcc, 0xd4, 0xe6, 0xe6, 0xed, 0x02, 0x00, 0xfe, 0x07, 0x09,
  0xfe, 0xff, 0x02, 0x03, 0xff, 0x09, 0x01, 0x03, 0x11, 0x11, 0x07, 0xfc,
  0xff, 0x0e, 0x09, 0x06, 0xee, 0xf4, 0xea, 0xbc, 0xc1, 0xc6, 0xd6, 0xd2,
  0xda, 0xd3, 0xd2, 0xda, 0xe6, 0xdf, 0xde, 0x02, 0x03, 0x08, 0x07, 0x02,
  0x0c, 0x06, 0x09, 0x02, 0x0d, 0x07, 0x0a, 0x10, 0x12, 0x13, 0x18, 0x18,
  0x18, 0x0a, 0x0b, 0x06, 0x06, 0x0f, 0x07, 0xff, 0x10, 0x03, 0x0b, 0x03,
  0x07, 0x01, 0x08, 0xff, 0x06, 0xfe, 0x01, 0xcf, 0xc2, 0xc7, 0xac, 0xa9,
  0xb6, 0xc4, 0xbc, 0xbd, 0xf8, 0xf5, 0xf6, 0x1a, 0x18, 0x17, 0x0b, 0x07,
  0x08, 0x16, 0x18, 0x0d, 0x07, 0x0d, 0x03, 0x1b, 0x15, 0x1c, 0x12, 0x11,
  0x0d, 0x21, 0x22, 0x1c, 0x0a, 0x06, 0x07, 0x0a, 0xff, 0x00, 0xfd, 0x02,
  0x05, 0x09, 0x04, 0xfd, 0x00, 0xfe, 0x05, 0xf2, 0xed, 0xe5, 0xa9, 0xa7,
  0xb1, 0xa1, 0x97, 0xa3, 0xbe, 0xc3, 0xc4, 0x06, 0x0a, 0x08, 0x08, 0x04,
  0x06, 0x1d, 0x10, 0x13, 0x12, 0x14, 0x14, 0x10, 0x19, 0x19, 0x15, 0x1b,
  0x1f, 0x11, 0x10, 0x0f, 0x0f, 0x02, 0x0e, 0x0b, 0x05, 0x08, 0x09, 0x08,
  0xff, 0x03, 0x02, 0x0b, 0xfd, 0x0a, 0xfe, 0x08, 0x01, 0x09, 0xf2, 0xeb,
  0xf6, 0xbf, 0xbd, 0xbc, 0xa5, 0x9a, 0xa4, 0xc8, 0xc5, 0xca, 0xfc, 0xfd,
  0xf7, 0xf9, 0xf7, 0x01, 0xfd, 0x08, 0x05, 0x05, 0x0b, 0x0f, 0xfd, 0xf9,
  0xfc, 0xe0, 0xeb, 0xe0, 0x00, 0x09, 0x0b, 0x0c, 0x0c, 0x11, 0x03, 0x09,
  0x04, 0xfd, 0x03, 0x07, 0xff, 0x0b, 0xfe, 0xfc, 0x09, 0x01, 0xff, 0x06,
  0x05, 0xdf, 0xe3, 0xe9, 0xe0, 0xd2, 0xd1, 0xb1, 0xae, 0xa7, 0xaf, 0xbb,
  0xb0, 0xb1, 0xb2, 0xb6, 0xa2, 0xa3, 0xa5, 0xa1, 0x9b, 0x9a, 0x9c, 0x9b,
  0xa6, 0xbe, 0xc4, 0xc7, 0x02, 0x03, 0x01, 0x07, 0x0d, 0x0f, 0xfd, 0x06,
  0x05, 0x07, 0x00, 0x02, 0x03, 0x04, 0xfe, 0x01, 0xfa, 0xfe, 0x05, 0x07,
  0x08, 0x09, 0x05, 0x04, 0xf8, 0xfa, 0xfe, 0xf1, 0xe2, 0xe4, 0xc7, 0xc6,
  0xcb, 0xe8, 0xf5, 0xe7, 0xf6, 0xf8, 0xfd, 0xfd, 0xf8, 0xf1, 0xf5, 0xff,
  0xf0, 0xfb, 0x02, 0xfe, 0xfe, 0xfe, 0xf7, 0x07, 0x0a, 0x0c, 0x06, 0x08,
  0x10, 0x0b, 0x03, 0x0b, 0x13, 0x09, 0x0a, 0x03, 0x02, 0x09, 0xf9, 0x00,
  0xff, 0x05, 0x02, 0xff, 0x00, 0xff, 0x07, 0x03, 0x00, 0x09, 0xf5, 0xeb,
  0xf3, 0xf3, 0xfe, 0xf8, 0x01, 0xf9, 0xf7, 0xf7, 0xfe, 0x00, 0x0c, 0x0c,
  0x08, 0x0f, 0x0f, 0x15, 0xf2, 0xfb, 0xf7, 0x05, 0xfa, 0x08, 0x0a, 0x0c,
  0x15, 0x08, 0x07, 0x0a, 0x01, 0x0d, 0x0a, 0xfc, 0x02, 0x09, 0x02, 0x0c,
  0x07, 0x07, 0xfa, 0xfb, 0x0c, 0xfc, 0x02, 0x02, 0xfa, 0xfc, 0x07, 0x04,
  0x05, 0xfa, 0xfe, 0xfa, 0xf4, 0xec, 0xf4, 0xef, 0xf2, 0xf4, 0x04, 0x01,
  0xf7, 0x08, 0x00, 0x0a, 0x09, 0xfe, 0xf9, 0xfb, 0xfe, 0xf6, 0xf8, 0x05,
  0x09, 0x04, 0x07, 0x0a, 0x12, 0x10, 0x08, 0x10, 0x05, 0x09, 0x0c, 0x0a,
  0x0e, 0x08, 0x0a, 0x0b, 0x08, 0x09, 0x0e, 0x02, 0xf7, 0x05, 0x05, 0x00,
  0x0d, 0xfd, 0x00, 0xfa, 0xfb, 0xf4, 0xf1, 0x02, 0x01, 0xf7, 0xf8, 0xf4,
  0xef, 0xfd, 0xf9, 0xf8, 0x07, 0x07, 0x00, 0xfa, 0x03, 0x00, 0xfa, 0x00,
  0xfa, 0xff, 0x01, 0xff, 0x02, 0x08, 0x10, 0x05, 0x07, 0x07, 0x0d, 0x03,
  0x11, 0x02, 0x07, 0x11, 0x07, 0x05, 0x0c, 0x0b, 0x18, 0x09, 0x0d, 0x05,
  0x07, 0x0b, 0x1a, 0x0b, 0x05, 0x08, 0x04, 0x07, 0xfb, 0xfd, 0xfa, 0xfc,
  0x03, 0xfd, 0xff, 0xf8, 0x64, 0x6b, 0x58, 0x64, 0x69, 0x5a, 0x4b, 0x50,
  0x50, 0x2d, 0x3b, 0x2f, 0x24, 0x29, 0x30, 0x1a, 0x0c, 0x1b, 0x0d, 0x0d,
  0x06, 0x0e, 0xee, 0xf4, 0xd3, 0xee, 0xe2, 0x15, 0x0b, 0xfa, 0x02, 0x0a,
  0x02, 0x1d, 0x15, 0x1c, 0x51, 0x5e, 0x72, 0x51, 0x33, 0x35, 0x57, 0x41,
  0x49, 0x7a, 0x7d, 0x7f, 0x25, 0x1f, 0x17, 0x36, 0x46, 0x2a, 0x1a, 0x1e,
  0x24, 0x3c, 0x55, 0x36, 0x49, 0x2c, 0x38, 0x19, 0x25, 0x33, 0x45, 0x4f,
  0x35, 0x61, 0x42, 0x56, 0x2c, 0x2b, 0x34, 0x3b, 0x2e, 0x3f, 0x1b, 0x07,
  0x1b, 0x03, 0xff, 0x12, 0xf5, 0xed, 0xf9, 0x02, 0x11, 0xfe, 0x15, 0x25,
  0x0b, 0x0e, 0x0f, 0x29, 0xe9, 0xec, 0xdd, 0xe2, 0xce, 0xda, 0xcc, 0xbf,
  0xcf, 0xe6, 0xde, 0xcb, 0xb9, 0xaf, 0xbd, 0xf3, 0xf7, 0xf3, 0xee, 0xf2,
  0xf1, 0xf9, 0x0e, 0xfc, 0x15, 0x02, 0xfb, 0x04, 0xed, 0xfb, 0x38, 0x33,
  0x36, 0x49, 0x37, 0x2a, 0x44, 0x4a, 0x4e, 0x23, 0x32, 0x23, 0x30, 0x2b,
  0x25, 0x40, 0x2e, 0x35, 0x30, 0x2a, 0x1f, 0x49, 0x55, 0x44, 0x2f, 0x24,
  0x33, 0x26, 0x29, 0x08, 0x0b, 0x07, 0x09, 0xfc, 0xf2, 0xf9, 0xe3, 0xdb,
  0xdd, 0xd5, 0xd9, 0xc3, 0xcb, 0xc6, 0xac, 0xe6, 0xdf, 0xe6, 0xc5, 0xbc,
  0xc1, 0x13, 0x13, 0x22, 0x28, 0x25, 0x31, 0x39, 0x23, 0x37, 0x6d, 0x79,
  0x66, 0x45, 0x3d, 0x5b, 0x4a, 0x39, 0x34, 0x3d, 0x35, 0x3b, 0x33, 0x29,
  0x2f, 0x22, 0x1e, 0x17, 0x24, 0x12, 0x26, 0x07, 0x1a, 0x14, 0x0e, 0x03,
  0x0c, 0x0b, 0x18, 0x18, 0xe1, 0xeb, 0xe8, 0x22, 0x0f, 0x07, 0xe0, 0xf6,
  0xf0, 0xec, 0xe4, 0xd4, 0xd6, 0xba, 0xd5, 0xd3, 0xcc, 0xb5, 0xd0, 0xe0,
  0xd8, 0xdc, 0xef, 0xe1, 0x24, 0x3c, 0x29, 0x26, 0x3a, 0x2b, 0x1a, 0x0b,
  0x27, 0x1c, 0x18, 0x1c, 0x30, 0x1d, 0x1b, 0x15, 0x09, 0x13, 0x2a, 0x2a,
  0x3e, 0x13, 0x34, 0x14, 0x42, 0x45, 0x3c, 0x23, 0x20, 0x07, 0x16, 0x22,
  0x22, 0x4a, 0x2e, 0x2d, 0x33, 0x1e, 0x1b, 0x2b, 0x11, 0x0e, 0x39, 0x31,
  0x32, 0x11, 0x0e, 0xf6, 0x40, 0x37, 0x34, 0x3a, 0x2b, 0x21, 0x10, 0x16,
  0x2b, 0x05, 0x27, 0x25, 0xf5, 0xfd, 0xfd, 0x22, 0x23, 0x19, 0x0b, 0xfa,
  0xfc, 0x15, 0x19, 0x0c, 0x0e, 0x26, 0x15, 0x27, 0x0b, 0x0c, 0xff, 0x03,
  0x20, 0x23, 0x22, 0x3c, 0x3c, 0x37, 0x36, 0x4a, 0x34, 0x2d, 0x58, 0x52,
  0x5f, 0x4d, 0x5d, 0x5b, 0xfe, 0xf9, 0x11, 0x23, 0x31, 0x2b, 0x0d, 0xfe,
  0x1e, 0xf1, 0xf8, 0xfc, 0x21, 0x06, 0x10, 0xf0, 0xf3, 0xf6, 0xec, 0xec,
  0xe8, 0xef, 0xe8, 0xe3, 0xe0, 0xeb, 0xf5, 0xf1, 0xff, 0x01, 0xde, 0xf4,
  0xf5, 0x01, 0x00, 0x0f, 0xef, 0xfc, 0xf8, 0xf7, 0x00, 0x06, 0x05, 0x1d,
  0x26, 0xfa, 0xf6, 0x03, 0x54, 0x38, 0x39, 0x39, 0x41, 0x27, 0x21, 0x0a,
  0x11, 0x07, 0x1a, 0x02, 0xf6, 0x0e, 0xff, 0x0a, 0x10, 0xfd, 0x01, 0xfb,
  0xf1, 0xfe, 0xfb, 0x04, 0xca, 0xdc, 0xdc, 0x0e, 0x08, 0x05, 0x12, 0x0e,
  0x23, 0x1d, 0x14, 0x19, 0x38, 0x21, 0x33, 0x09, 0x18, 0x09, 0x0e, 0x08,
  0x0e, 0xfc, 0xfb, 0x00, 0x20, 0x2b, 0x28, 0x49, 0x47, 0x3e, 0x1e, 0x23,
  0x1e, 0x2a, 0x19, 0x0d, 0x1c, 0x20, 0x1e, 0x09, 0x0a, 0xfb, 0x19, 0x10,
  0x12, 0x26, 0x13, 0x22, 0x1c, 0x1e, 0x38, 0x0d, 0x0a, 0xf9, 0x1d, 0x1a,
  0x14, 0x1a, 0x11, 0x0f, 0xf3, 0x03, 0x08, 0x09, 0x14, 0x1f, 0x35, 0x24,
  0x1a, 0x38, 0x4d, 0x4d, 0x4e, 0x3b, 0x2f, 0x3e, 0x20, 0x36, 0x13, 0x1b,
  0x0b, 0xef, 0xf1, 0x09, 0xff, 0x17, 0x07, 0x0d, 0x25, 0x21, 0x07, 0xf0,
  0xf4, 0x2c, 0x27, 0x25, 0x1e, 0x08, 0x13, 0x1d, 0x25, 0x15, 0x1e, 0x22,
  0x13, 0x27, 0x37, 0x3b, 0x3e, 0x20, 0x22, 0x29, 0x1e, 0x21, 0x29, 0x28,
  0x2d, 0x10, 0x0a, 0x05, 0x21, 0x1f, 0x1d, 0x27, 0x1b, 0x1e, 0x23, 0x0d,
  0x2e, 0x12, 0x1f, 0x0f, 0x02, 0x03, 0x1e, 0xfa, 0xee, 0xf2, 0x05, 0xf9,
  0x07, 0xe0, 0xe4, 0xe4, 0x04, 0xf0, 0xeb, 0xec, 0xf8, 0xee, 0x1f, 0x0b,
  0x0c, 0x42, 0x47, 0x39, 0x11, 0x17, 0x22, 0x1b, 0x21, 0x19, 0x31, 0x32,
  0x24, 0x1f, 0x18, 0x04, 0x3c, 0x49, 0x42, 0x2f, 0x30, 0x30, 0x09, 0xfa,
  0x12, 0xff, 0xff, 0x1b, 0x05, 0x11, 0x12, 0x07, 0xf1, 0x0d, 0xe0, 0xdb,
  0xec, 0x06, 0xed, 0xf2, 0x01, 0xff, 0x06, 0x11, 0x2c, 0x2a, 0x03, 0xf3,
  0x09, 0xfe, 0xee, 0x0e, 0x06, 0xf1, 0x0a, 0x0c, 0x0c, 0xf2, 0x29, 0x26,
  0x33, 0x3a, 0x23, 0x26, 0x30, 0x1b, 0x29, 0x18, 0x1d, 0x27, 0x0a, 0x0a,
  0x06, 0x08, 0x04, 0x10, 0xf0, 0xf1, 0xfe, 0x20, 0x1c, 0x27, 0x01, 0x00,
  0xfc, 0x0c, 0x0d, 0x11, 0xda, 0xe6, 0xe6, 0x0f, 0x26, 0x25, 0x27, 0x21,
  0x30, 0x04, 0x03, 0xf1, 0xd7, 0xe3, 0xe7, 0xef, 0xec, 0xd2, 0xdb, 0xd2,
  0xc6, 0xf3, 0xf6, 0xdb, 0x20, 0x39, 0x35, 0x2a, 0x43, 0x27, 0x27, 0x19,
  0x1f, 0x21, 0x06, 0x0c, 0x11, 0x11, 0x2c, 0x15, 0x11, 0x1b, 0xfc, 0x02,
  0x00, 0x17, 0x18, 0x1b, 0xe3, 0xd6, 0xe7, 0xd5, 0xce, 0xda, 0x14, 0x20,
  0x1c, 0xf4, 0x01, 0xff, 0x2b, 0x2b, 0x24, 0x33, 0x38, 0x18, 0x5c, 0x5a,
  0x40, 0x07, 0x01, 0x09, 0x4c, 0x45, 0x33, 0x53, 0x5a, 0x52, 0x33, 0x45,
  0x3c, 0x30, 0x2d, 0x24, 0x19, 0x18, 0x1b, 0xfa, 0x0a, 0x11, 0x3a, 0x39,
  0x38, 0x00, 0x0b, 0x12, 0x23, 0x1b, 0x1f, 0xbb, 0xbb, 0xad, 0xb9, 0xb3,
  0xb4, 0xf2, 0xe7, 0xed, 0x09, 0xf9, 0x04, 0x25, 0x20, 0x26, 0x16, 0x27,
  0x17, 0x5f, 0x5a, 0x4a, 0xf7, 0xf1, 0xf6, 0xdd, 0xd9, 0xd6, 0xcb, 0xc2,
  0xc2, 0xb6, 0xb1, 0xbe, 0xcc, 0xd2, 0xcb, 0xdc, 0xcd, 0xdc, 0xd6, 0xcd,
  0xde, 0xd4, 0xd7, 0xdd, 0xc5, 0xcf, 0xce, 0xb4, 0xc0, 0xbb, 0x9e, 0xac,
  0x9d, 0x93, 0x9f, 0x9b, 0xa5, 0xa2, 0x9d, 0xa5, 0xa7, 0xaa, 0xc7, 0xc3,
  0xca, 0xae, 0xb4, 0xb5, 0x2c, 0x31, 0x26, 0x1d, 0x17, 0x14, 0x0f, 0x09,
  0x06, 0x0b, 0x09, 0x07, 0x0e, 0xff, 0x07, 0xfd, 0xfc, 0xfe, 0xf5, 0xef,
  0xf4, 0xdf, 0xde, 0xd7, 0xe1, 0xd6, 0xd3, 0xaf, 0xb8, 0xb9, 0xc0, 0xc6,
  0xc7, 0xe4, 0xef, 0xf3, 0x0a, 0x03, 0x13, 0x13, 0x18, 0x12, 0x0c, 0x12,
  0x0a, 0xf7, 0xf6, 0xfb, 0x0d, 0x14, 0x12, 0x2c, 0x20, 0x28, 0x23, 0x23,
  0x22, 0x18, 0x14, 0x16, 0x09, 0x10, 0x11, 0xf5, 0xf4, 0xfc, 0xe5, 0xf6,
  0xee, 0xdd, 0xe4, 0xd2, 0xbe, 0xba, 0xbe, 0xbf, 0xc7, 0xc3, 0xff, 0xf7,
  0x06, 0x06, 0x06, 0xfe, 0x1a, 0x12, 0x11, 0x08, 0x04, 0x08, 0x03, 0x05,
  0xfb, 0xf0, 0xf3, 0xf0, 0xe0, 0xd8, 0xde, 0xdf, 0xe6, 0xe0, 0xce, 0xc6,
  0xcb, 0xc3, 0xd1, 0xca, 0xc3, 0xb8, 0xc7, 0xc0, 0xc0, 0xb8, 0xc6, 0xc4,
  0xcb, 0xb2, 0xaa, 0xb2, 0xad, 0xa6, 0xa8, 0xe7, 0xf4, 0xe5, 0x05, 0x0d,
  0x0d, 0x0c, 0x0c, 0x17, 0x12, 0x12, 0x09, 0x05, 0x11, 0x0e, 0x01, 0x00,
  0x08, 0xfb, 0xf5, 0x01, 0xbf, 0xb8, 0xbe, 0xde, 0xd9, 0xdd, 0xcc, 0xcc,
  0xd0, 0xbf, 0xbc, 0xcc, 0xea, 0xed, 0xe7, 0xdb, 0xec, 0xe4, 0xb1, 0xac,
  0xad, 0xcf, 0xd7, 0xd4, 0xf9, 0xf0, 0xff, 0x09, 0x0c, 0x0c, 0x0e, 0x0e,
  0x01, 0x07, 0x0c, 0x14, 0x0a, 0x0f, 0x14, 0x09, 0x0c, 0x0a, 0xfe, 0xf9,
  0x07, 0x03, 0xfe, 0xfc, 0xbc, 0xcd, 0xbd, 0xf4, 0xf4, 0xe6, 0xef, 0xee,
  0xf6, 0x07, 0xfa, 0x01, 0xf8, 0xf0, 0xf8, 0xc2, 0xcf, 0xc6, 0xa6, 0xaa,
  0xa2, 0xf1, 0xf9, 0xef, 0x04, 0x10, 0xfd, 0x03, 0x0a, 0xfc, 0x06, 0x08,
  0x04, 0x12, 0x06, 0x0f, 0x04, 0x0e, 0x0b, 0x00, 0x02, 0xfd, 0x0c, 0xfd,
  0xfb, 0xf8, 0xee, 0xfa, 0x2b, 0x26, 0x28, 0x33, 0x24, 0x22, 0x15, 0x1d,
  0x0f, 0xe3, 0xe0, 0xdb, 0xa8, 0x97, 0x9f, 0x9e, 0xa1, 0xa8, 0xfb, 0x05,
  0xf7, 0x06, 0xff, 0xff, 0x09, 0x06, 0x0d, 0x0b, 0x10, 0x10, 0x0e, 0x05,
  0x12, 0x0a, 0x05, 0x08, 0x0c, 0xff, 0x02, 0x04, 0x06, 0xfb, 0x06, 0x06,
  0xf4, 0xf8, 0x01, 0xfb, 0x2b, 0x2f, 0x2a, 0xf2, 0xfe, 0xf3, 0xc5, 0xc6,
  0xc7, 0x95, 0x93, 0x93, 0x81, 0x8b, 0x82, 0xf2, 0xf6, 0xfa, 0x01, 0x03,
  0x08, 0x05, 0x02, 0x03, 0x0a, 0x07, 0x0c, 0x09, 0x16, 0x08, 0x19, 0x1a,
  0x0d, 0x14, 0x14, 0x0b, 0x07, 0x0d, 0x01, 0xed, 0xfb, 0xf4, 0x01, 0xf6,
  0xf9, 0xf2, 0xf7, 0xfb, 0xdc, 0xcf, 0xdb, 0xbf, 0xca, 0xcf, 0xb3, 0xbe,
  0xb3, 0xba, 0xb1, 0xb1, 0x07, 0xfb, 0x00, 0x0d, 0x0d, 0x08, 0x10, 0x06,
  0x0e, 0x02, 0x0d, 0x05, 0x11, 0x0d, 0x08, 0x05, 0x16, 0x0d, 0x16, 0x0b,
  0x0c, 0x0e, 0x08, 0x0e, 0xf8, 0xf7, 0xfd, 0xf4, 0xfc, 0xf5, 0xf4, 0xfc,
  0xfb, 0x03, 0x09, 0xff, 0xce, 0xc3, 0xc3, 0xa7, 0xb6, 0xac, 0xb3, 0xb4,
  0xb4, 0x02, 0x03, 0x00, 0x03, 0xfc, 0xfd, 0x07, 0x02, 0x08, 0x03, 0x0c,
  0x07, 0x13, 0x05, 0x06, 0x0d, 0x11, 0x0e, 0x1a, 0x11, 0x0d, 0x0d, 0x06,
  0x11, 0x0b, 0x0c, 0x0a, 0xf5, 0xfc, 0xee, 0xf2, 0xfa, 0xf9, 0xfd, 0xff,
  0x05, 0x02, 0x0b, 0x0a, 0xd2, 0xd3, 0xc5, 0xb6, 0xbb, 0xbb, 0xfc, 0xf9,
  0xf8, 0x01, 0x0b, 0x02, 0x0d, 0x0f, 0x0a, 0x0d, 0xff, 0x0a, 0x14, 0x02,
  0x12, 0x0a, 0x18, 0x11, 0x01, 0x13, 0x0e, 0x09, 0x12, 0x05, 0x0a, 0x18,
  0x18, 0xf4, 0xfd, 0xf9, 0xec, 0xef, 0xef, 0xf6, 0x05, 0xf3, 0xfc, 0xf6,
  0xfe, 0xfc, 0x0c, 0x08, 0x94, 0x94, 0x96, 0xe2, 0xe3, 0xd9, 0x0c, 0xfc,
  0x01, 0x0a, 0xfe, 0xff, 0x0c, 0xff, 0x09, 0x09, 0x0a, 0x05, 0x0a, 0x02,
  0x04, 0x04, 0x0d, 0x10, 0x1a, 0x0a, 0x0c, 0x09, 0x14, 0x0e, 0xfe, 0x05,
  0x02, 0xee, 0xf4, 0xf6, 0xff, 0xfc, 0xfb, 0x06, 0x06, 0x01, 0xfb, 0x02,
  0x00, 0xf8, 0x01, 0x02, 0xc6, 0xc8, 0xc4, 0x0f, 0x14, 0x0b, 0x13, 0x13,
  0x0b, 0x0b, 0x0a, 0x0f, 0x15, 0x07, 0x06, 0x0a, 0x14, 0x12, 0x0d, 0x04,
  0x08, 0x05, 0x0c, 0x13, 0x0e, 0x0f, 0xff, 0x02, 0x04, 0x00, 0xf1, 0xf6,
  0xfb, 0xfb, 0xf8, 0xff, 0x02, 0x07, 0xfb, 0xf9, 0xf7, 0xfa, 0x02, 0x06,
  0x05, 0x02, 0x02, 0xfc, 0xea, 0xef, 0xeb, 0x0c, 0x09, 0x11, 0x10, 0x05,
  0x0c, 0x0a, 0x04, 0x03, 0x08, 0x14, 0x13, 0x0c, 0x0e, 0x09, 0x0d, 0x12,
  0x19, 0x02, 0x0b, 0x01, 0x00, 0x0a, 0x06, 0xf9, 0xf7, 0xff, 0x00, 0xff,
  0x00, 0xfd, 0xfe, 0xfe, 0xfa, 0x07, 0x01, 0xfc, 0xf9, 0xfc, 0x0a, 0x04,
  0xfe, 0xf8, 0xf7, 0x05, 0x06, 0xff, 0xff, 0x06, 0x15, 0x15, 0x0c, 0x14,
  0x09, 0x02, 0xfe, 0x05, 0x19, 0x0c, 0x09, 0x0e, 0x11, 0x09, 0xfa, 0x05,
  0xfd, 0xf7, 0xf6, 0x01, 0xfd, 0xfe, 0xfc, 0x00, 0xfe, 0xff, 0xfc, 0x01,
  0x05, 0x00, 0x01, 0xf9, 0x0d, 0x00, 0x01, 0xf7, 0xf2, 0xf9, 0x02, 0xf9,
  0xff, 0x0b, 0x05, 0x04, 0x15, 0x0d, 0x1b, 0x12, 0x17, 0x11, 0x06, 0x01,
  0x07, 0x07, 0x13, 0x17, 0x11, 0x10, 0x10, 0x03, 0xfd, 0x01, 0x0d, 0xfb,
  0xff, 0x06, 0x0d, 0x0b, 0x0b, 0xfe, 0x0e, 0x07, 0x02, 0xfc, 0x09, 0xf8,
  0xff, 0xfe, 0xf7, 0xf4, 0x02, 0x03, 0xff, 0xf8, 0xfc, 0xf6, 0x07, 0xfc,
  0xfd, 0x0c, 0xfc, 0x05, 0xf5, 0xfe, 0x03, 0x00, 0x05, 0x00, 0x07, 0x04,
  0x07, 0x03, 0xfd, 0x0d, 0x05, 0xff, 0xf8, 0x0c, 0x04, 0xff, 0xfe, 0x02,
  0x09, 0x0d, 0x00, 0x04, 0xfe, 0xfe, 0xfd, 0x07, 0x09, 0xfa, 0x03, 0xfc,
  0xf3, 0xfc, 0x04, 0xf8, 0xf9, 0xfb, 0xec, 0xf0, 0xfa, 0xef, 0xf6, 0xf5,
  0xe6, 0xfd, 0xf3, 0xf6, 0x05, 0xfb, 0x0a, 0x07, 0x02, 0xf8, 0x03, 0x05,
  0x08, 0x10, 0x06, 0x15, 0x09, 0x0d, 0x0a, 0xf6, 0xf3, 0xeb, 0xe4, 0xe2,
  0xe4, 0xdf, 0xd1, 0xdb, 0xcd, 0xc9, 0xd5, 0xc3, 0xca, 0xc1, 0xd9, 0xd7,
  0xd8, 0xeb, 0xe1, 0xeb, 0xe9, 0xea, 0xfa, 0xfc, 0xfe, 0x02, 0x09, 0x07,
  0xfe, 0x09, 0x04, 0x04, 0x03, 0x00, 0x05, 0x06, 0xfd, 0x0a, 0x02, 0x0a,
  0x11, 0x05, 0x03, 0xf8, 0xec, 0xf1, 0xee, 0xf0, 0xe6, 0xf0, 0xf6, 0xe6,
  0xe8, 0xfc, 0xf4, 0xf9, 0xf9, 0xf9, 0xfe, 0x00, 0x07, 0xfc, 0x00, 0xf7,
  0xf9, 0x0a, 0x05, 0x03, 0x01, 0xff, 0x0b, 0x0a, 0xff, 0x11, 0xfd, 0x0b,
  0x05, 0x0b, 0x01, 0x01, 0x0c, 0x02, 0x06, 0x09, 0x06, 0x0a, 0x0e, 0x0d,
  0x07, 0xf0, 0xec, 0xe7, 0x04, 0xf6, 0xf5, 0xf8, 0xf0, 0xf3, 0xfb, 0xfb,
  0xf4, 0xf3, 0xf4, 0x03, 0xfa, 0xfa, 0xfd, 0xfe, 0xf9, 0x08, 0x06, 0x12,
  0x03, 0x06, 0x0a, 0x17, 0x0d, 0x08, 0x0b, 0x0a, 0x05, 0x03, 0x0a, 0x05,
  0x04, 0x05, 0xf9, 0x0b, 0x13, 0x07, 0x03, 0x01, 0xfd, 0xff, 0xed, 0xec,
  0xff, 0xf2, 0xf1, 0xf6, 0xf2, 0xfc, 0xf5, 0xef, 0xe5, 0xf2, 0xe7, 0xf2,
  0xe5, 0xf0, 0xf3, 0xfb, 0x01, 0xfa, 0x03, 0x16, 0x07, 0x06, 0x09, 0x01,
  0xfe, 0x07, 0x0f, 0x01, 0x0b, 0xff, 0x08, 0x06, 0x06, 0x03, 0x02, 0x04,
  0x05, 0x03, 0x05, 0xf5, 0xff, 0xf7, 0xf4, 0xe0, 0xd5, 0xdf, 0xbf, 0xca,
  0xba, 0xdc, 0xd6, 0xd8, 0xe1, 0xdd, 0xdb, 0xcd, 0xdc, 0xd0, 0xe0, 0xe4,
  0xed, 0x02, 0x03, 0xf2, 0xf7, 0x07, 0x00, 0xff, 0x0a, 0xfd, 0xf9, 0x08,
  0x08, 0x02, 0x03, 0x0f, 0x02, 0x09, 0x09, 0x00, 0x03, 0xfb, 0x04, 0x0f,
  0x07, 0xff, 0xfd, 0x05, 0xc2, 0xc1, 0xc3, 0x8c, 0x99, 0x91, 0x90, 0x8b,
  0x9d, 0x9d, 0x9a, 0x9c, 0x98, 0x98, 0x9c, 0xd2, 0xc8, 0xc5, 0xf3, 0xf5,
  0xf7, 0xfa, 0x04, 0x03, 0x07, 0x09, 0x09, 0x01, 0x05, 0x10, 0x0a, 0x02,
  0x0a, 0x09, 0x0b, 0xfe, 0x08, 0x08, 0x04, 0xff, 0x0f, 0x0a, 0x0b, 0x03,
  0xff, 0x06, 0x01, 0x01, 0xbb, 0xbf, 0xba, 0xc7, 0xb4, 0xba, 0xf0, 0xec,
  0xea, 0xf9, 0xff, 0xfb, 0x06, 0x0e, 0x0e, 0x18, 0x0f, 0x1e, 0xff, 0x06,
  0x06, 0x09, 0x05, 0x00, 0x08, 0x09, 0x00, 0x05, 0xf8, 0x02, 0x0a, 0x06,
  0x0d, 0x09, 0x0e, 0x07, 0x07, 0x0a, 0x07, 0x0b, 0x02, 0x07, 0x09, 0x02,
  0x08, 0x04, 0x05, 0x03, 0xa3, 0xa9, 0xa5, 0xbf, 0xb7, 0xb1, 0xff, 0xf9,
  0xee, 0x0e, 0x0e, 0xff, 0x17, 0x23, 0x13, 0x0e, 0x09, 0x19, 0x15, 0x0b,
  0x0c, 0x13, 0x0d, 0x0b, 0x03, 0x07, 0x0f, 0x04, 0x01, 0x0c, 0x01, 0x02,
  0x0b, 0x02, 0xff, 0x05, 0x03, 0xfc, 0x07, 0x04, 0x00, 0x0d, 0x07, 0x00,
  0x12, 0xf0, 0xed, 0xe7, 0x8d, 0x89, 0x81, 0xcb, 0xd3, 0xd1, 0x07, 0xf7,
  0xf4, 0x1e, 0x22, 0x13, 0x1f, 0x19, 0x15, 0x07, 0x07, 0x0b, 0x16, 0x0b,
  0x12, 0xff, 0x07, 0x05, 0x11, 0x11, 0x0c, 0x0a, 0x0e, 0x0b, 0x10, 0x01,
  0x01, 0x02, 0x04, 0x12, 0xfd, 0xfe, 0x00, 0x03, 0x07, 0x0b, 0x01, 0x00,
  0x01, 0xe0, 0xe2, 0xda, 0xb0, 0xa9, 0xa9, 0xf4, 0xf5, 0xf8, 0x09, 0x10,
  0x10, 0x1b, 0x0f, 0x1c, 0x16, 0x09, 0x0a, 0x02, 0x0b, 0x00, 0xf6, 0xf3,
  0xf9, 0x08, 0x0c, 0x07, 0x11, 0x0b, 0xff, 0x01, 0xf5, 0x05, 0x06, 0x0d,
  0x14, 0x02, 0x08, 0x03, 0x02, 0xfc, 0xfa, 0xee, 0xfe, 0xfb, 0xc8, 0xc6,
  0xc6, 0xc7, 0xd1, 0xce, 0xda, 0xd1, 0xd5, 0xf5, 0xfd, 0xf2, 0x06, 0x11,
  0x0d, 0x0e, 0x15, 0x0c, 0x02, 0xf6, 0xf6, 0xce, 0xd6, 0xca, 0xf5, 0xfe,
  0xf9, 0x1a, 0x1a, 0x18, 0x10, 0x12, 0x19, 0x0a, 0x0d, 0x0a, 0x12, 0x0b,
  0x15, 0xf4, 0xf9, 0xf2, 0xd7, 0xdf, 0xcd, 0xc3, 0xc2, 0xc5, 0xdc, 0xce,
  0xd1, 0xe7, 0xe1, 0xe1, 0xde, 0xe9, 0xe6, 0x10, 0x0c, 0x10, 0x1a, 0x12,
  0x0f, 0xd1, 0xe3, 0xd8, 0xd5, 0xdd, 0xcb, 0x00, 0x06, 0x0a, 0x12, 0x0a,
  0x06, 0x08, 0x00, 0x05, 0x16, 0x11, 0x12, 0x09, 0xf8, 0xfa, 0xe9, 0xee,
  0xf2, 0xd7, 0xca, 0xcb, 0xcc, 0xc3, 0xc6, 0xc0, 0xba, 0xc9, 0xf4, 0xf4,
  0xe7, 0xf4, 0x02, 0xf1, 0x0d, 0x07, 0x00, 0xe4, 0xeb, 0xf0, 0xbb, 0xc0,
  0xb7, 0xae, 0xb1, 0xa6, 0xec, 0xf7, 0xf6, 0x05, 0x09, 0xfb, 0x01, 0x07,
  0x14, 0x0c, 0x0e, 0x10, 0xf6, 0xf5, 0xee, 0xcf, 0xc9, 0xc0, 0xb3, 0xb0,
  0xb4, 0xaa, 0xae, 0xa5, 0xca, 0xc9, 0xce, 0xe7, 0xf5, 0xf4, 0xf7, 0xff,
  0xfa, 0x05, 0x09, 0x0f, 0xf5, 0xf3, 0xe8, 0xbc, 0xbb, 0xc0, 0xa8, 0xb4,
  0xb2, 0xdd, 0xdb, 0xdc, 0xf1, 0xf5, 0xf9, 0x0d, 0x04, 0xfe, 0x0c, 0x0a,
  0x0a, 0xe6, 0xe3, 0xdf, 0xc0, 0xc4, 0xb2, 0x8f, 0x89, 0x8b, 0xa4, 0xa2,
  0xa3, 0xd4, 0xd6, 0xd5, 0xfa, 0xfd, 0x07, 0x07, 0x0c, 0x01, 0x0a, 0x09,
  0x08, 0xfa, 0x0a, 0xfd, 0xd0, 0xd7, 0xcb, 0xdd, 0xed, 0xe7, 0xf6, 0xf8,
  0xf8, 0xf5, 0xfb, 0xef, 0x0e, 0x04, 0xfd, 0xc0, 0xcf, 0xcc, 0x93, 0x95,
  0xa1, 0x99, 0x97, 0x8c, 0xa0, 0x93, 0x97, 0xb1, 0xbd, 0xb7, 0xf7, 0xfb,
  0xfe, 0x05, 0x0e, 0x03, 0x0a, 0x0f, 0x0c, 0x00, 0xff, 0xf5, 0xf7, 0x03,
  0x04, 0xfd, 0xfa, 0xff, 0x04, 0x02, 0xfd, 0x02, 0x04, 0x06, 0x03, 0xfc,
  0x05, 0x02, 0x01, 0xff, 0x03, 0xfe, 0xfb, 0xfd, 0xff, 0xf8, 0xef, 0xec,
  0xee, 0xd1, 0xd1, 0xcf, 0xa4, 0xa3, 0xa2, 0x9b, 0x9f, 0xa1, 0xad, 0xac,
  0xa5, 0xb0, 0xb6, 0xaf, 0xbb, 0xb2, 0xbf, 0xd1, 0xd0, 0xcd, 0xc5, 0xbe,
  0xc4, 0xc9, 0xcc, 0xd5, 0x05, 0xff, 0x02, 0xfc, 0x0b, 0x03, 0xfc, 0x03,
  0x01, 0x0a, 0x04, 0x02, 0x02, 0x0c, 0xff, 0x03, 0x05, 0x0a, 0x0a, 0x11,
  0x14, 0x08, 0x08, 0x06, 0x1a, 0x15, 0x14, 0x06, 0x07, 0x0c, 0x00, 0x07,
  0x08, 0xfa, 0xf8, 0xf1, 0xe1, 0xeb, 0xef, 0xf6, 0xfc, 0x01, 0xf5, 0xf4,
  0xf7, 0x0c, 0x00, 0x00, 0x05, 0x0c, 0x07, 0x04, 0x05, 0x02, 0x05, 0x07,
  0x00, 0x0a, 0x00, 0xfd, 0x03, 0x0a, 0x06, 0x0b, 0x05, 0x0e, 0x0f, 0x0f,
  0x0c, 0x12, 0x15, 0x0f, 0x17, 0x1b, 0x13, 0x0f, 0x08, 0x09, 0x17, 0x17,
  0x17, 0xf9, 0x00, 0xfa, 0xee, 0xe5, 0xed, 0xfa, 0xfd, 0xfb, 0x0a, 0x06,
  0x00, 0x12, 0x18, 0x11, 0x00, 0xfb, 0xfe, 0xf7, 0x00, 0xfe, 0xfe, 0x04,
  0xf6, 0x02, 0xff, 0xfc, 0x03, 0xfc, 0x03, 0x07, 0x12, 0x10, 0x05, 0x0f,
  0x0b, 0x0d, 0x10, 0x11, 0x03, 0x00, 0xff, 0x0a, 0x08, 0x07, 0x09, 0xfd,
  0x03, 0xfc, 0xf1, 0xf5, 0xe3, 0xec, 0xe3, 0x03, 0xfe, 0xfc, 0x0b, 0x04,
  0x04, 0x0b, 0x14, 0x07, 0xfb, 0x07, 0xfd, 0x09, 0x04, 0x01, 0x0c, 0x0e,
  0xff, 0xfc, 0xfb, 0x02, 0xe3, 0xe3, 0xe9, 0xb0, 0xb2, 0xb0, 0x87, 0x8f,
  0x8a, 0x8a, 0x81, 0x8e, 0x95, 0x94, 0x8d, 0x9d, 0x9b, 0x9d, 0xae, 0xab,
  0xac, 0xbc, 0xb9, 0xb4, 0xd0, 0xcf, 0xcb, 0xed, 0xe0, 0xec, 0xfd, 0x02,
  0x07, 0x0b, 0xfd, 0x05, 0x0b, 0x0a, 0x03, 0xfd, 0x03, 0x05, 0xf2, 0xef,
  0xf6, 0xe0, 0xe7, 0xe0, 0xe6, 0xe3, 0xe1, 0xee, 0xed, 0xf6, 0x05, 0x0b,
  0x08, 0x19, 0x0f, 0x14, 0x07, 0x03, 0x01, 0x03, 0x00, 0x06, 0x00, 0x08,
  0xfb, 0xfe, 0xfa, 0xff, 0xce, 0xda, 0xda, 0xc7, 0xd0, 0xce, 0xaf, 0xb1,
  0xae, 0xbb, 0xc6, 0xbe, 0xfd, 0x00, 0xf9, 0xf4, 0xf1, 0xf6, 0xee, 0xf4,
  0xf9, 0xf8, 0xf3, 0xfa, 0x05, 0xfc, 0x03, 0xff, 0x0c, 0x03, 0x0a, 0x09,
  0x0f, 0x0e, 0x06, 0x10, 0x0d, 0x0d, 0x13, 0x0f, 0x0c, 0x15, 0x02, 0x02,
  0x08, 0x05, 0x0a, 0x10, 0xf5, 0xfe, 0xf8, 0x0a, 0x08, 0x02, 0x07, 0x06,
  0x07, 0xfc, 0x07, 0xfa, 0x06, 0xff, 0xfd, 0x08, 0x01, 0x0a, 0x09, 0x0a,
  0x0c, 0x00, 0x07, 0x10, 0x09, 0x05, 0x00, 0x05, 0xfd, 0x05, 0x04, 0x04,
  0x03, 0x00, 0xfa, 0xfe, 0x08, 0x03, 0x03, 0xfa, 0x01, 0x07, 0x07, 0x08,
  0xfd, 0xf5, 0xfc, 0xf0, 0xf2, 0xf8, 0xf3, 0xf5, 0xfe, 0xfe, 0x0a, 0x09,
  0x05, 0xfc, 0xf6, 0xf8, 0x06, 0x08, 0x09, 0xff, 0x04, 0x05, 0x06, 0x05,
  0xfd, 0x03, 0x07, 0x07, 0x08, 0x06, 0x01, 0x04, 0x0a, 0x06, 0x01, 0xfe,
  0x0a, 0x0a, 0x03, 0x03, 0x0b, 0xfd, 0x01, 0xfd, 0xf9, 0x02, 0xf8, 0xf4,
  0xf0, 0xea, 0xe7, 0xf4, 0x03, 0xfe, 0xfe, 0x02, 0xfe, 0x03, 0x00, 0xfc,
  0x06, 0xfd, 0xf8, 0xf8, 0x0c, 0x01, 0x01, 0x01, 0x01, 0x03, 0x03, 0x02,
  0xf8, 0x04, 0x06, 0xfb, 0x06, 0x0c, 0xfe, 0x03, 0x0b, 0x08, 0x0b, 0x02,
  0x00, 0x07, 0xfd, 0x06, 0x0a, 0x07, 0x04, 0x0e, 0x0d, 0x0b, 0xf8, 0xf8,
  0xf0, 0x02, 0xfc, 0xf9, 0xfc, 0xfb, 0x03, 0xfd, 0x02, 0x09, 0x0d, 0x04,
  0x0b, 0x06, 0x0d, 0x0e, 0x05, 0x0d, 0x0b, 0x02, 0x03, 0x05, 0x04, 0x04,
  0x07, 0xff, 0x08, 0x07, 0x01, 0x02, 0xff, 0xf4, 0xf9, 0xfc, 0xf7, 0xf8,
  0xf9, 0xff, 0xf3, 0xfb, 0x06, 0x04, 0x04, 0x07, 0x08, 0x08, 0x01, 0x03,
  0xfb, 0xfc, 0x04, 0x01, 0xf6, 0xff, 0xf8, 0xf9, 0xfa, 0x06, 0xfa, 0x07,
  0x00, 0xf4, 0xfa, 0x00, 0x01, 0x07, 0x07, 0xfd, 0xfd, 0x03, 0x06, 0x06,
  0x06, 0x08, 0x03, 0x04, 0x06, 0xfb, 0xfd, 0xfa, 0x05, 0xfc, 0x04, 0xfb,
  0xfe, 0xf2, 0xf7, 0xed, 0xe4, 0xeb, 0xeb, 0xf2, 0xee, 0xf4, 0x00, 0xf9,
  0xff, 0xf9, 0xf3, 0xff, 0xf8, 0xfd, 0xf4, 0xf9, 0xf4, 0xfa, 0x0a, 0x05,
  0x0a, 0x03, 0x09, 0xfc, 0x04, 0x0c, 0x02, 0x04, 0x00, 0x05, 0xfc, 0x07,
  0xfb, 0x01, 0x09, 0x0a, 0x0a, 0x10, 0x07, 0x0a, 0x0e, 0x08, 0x08, 0x14,
  0x10, 0xfd, 0xfe, 0xf9, 0xe2, 0xea, 0xe6, 0xb8, 0xb8, 0xbb, 0xb6, 0xba,
  0xbf, 0xfe, 0xfb, 0xfa, 0xfe, 0x08, 0xff, 0xfc, 0x01, 0x07, 0x06, 0xfd,
  0x08, 0x0d, 0x09, 0x01, 0x06, 0xfc, 0x06, 0xf8, 0xfc, 0xf8, 0x03, 0xfc,
  0xfb, 0x01, 0x03, 0x03, 0x04, 0x0b, 0x0f, 0x05, 0x06, 0x10, 0x10, 0x0c,
  0x14, 0x04, 0x05, 0x0a, 0x09, 0x14, 0x11, 0xee, 0xf5, 0xf3, 0xe8, 0xf2,
  0xe9, 0xbc, 0xbf, 0xc5, 0xe0, 0xe4, 0xe7, 0xd8, 0xd8, 0xce, 0xdb, 0xd6,
  0xda, 0x04, 0xf7, 0xf8, 0x02, 0xfd, 0xf8, 0xfe, 0x02, 0x01, 0xf5, 0xee,
  0xf3, 0xef, 0xf1, 0xee, 0xf7, 0xf2, 0xf1, 0xfc, 0x0a, 0xfe, 0x04, 0xfe,
  0xff, 0x05, 0x03, 0x0d, 0x15, 0x18, 0x17, 0xf3, 0xfd, 0x01, 0x03, 0xf9,
  0x00, 0xdf, 0xe0, 0xdf, 0xd5, 0xd9, 0xd6, 0xe7, 0xe9, 0xe3, 0xd8, 0xdf,
  0xdd, 0xfa, 0xf4, 0xf5, 0x05, 0x0a, 0x0a, 0x00, 0xfb, 0xfd, 0xfd, 0xf8,
  0xfb, 0xee, 0xec, 0xee, 0xe1, 0xd9, 0xda, 0xb1, 0xb5, 0xb7, 0xa6, 0xa5,
  0xa8, 0x99, 0x9f, 0xa1, 0xa5, 0x9e, 0xac, 0xb4, 0xb3, 0xa9, 0xc6, 0xc6,
  0xca, 0xd5, 0xdc, 0xd8, 0xf4, 0xe8, 0xed, 0xf5, 0xfb, 0xf8, 0x11, 0x05,
  0x06, 0xf5, 0xee, 0xeb, 0x62, 0xff, 0xff, 0xff, 0x04, 0x00, 0x00, 0x00,
  0x08, 0x00, 0x00, 0x00, 0x01, 0x00, 0x00, 0x00, 0x02, 0x00, 0x00, 0x00,
  0x94, 0xf4, 0xff, 0xff, 0x98, 0xf4, 0xff, 0xff, 0x0f, 0x00, 0x00, 0x00,
  0x4d, 0x4c, 0x49, 0x52, 0x20, 0x43, 0x6f, 0x6e, 0x76, 0x65, 0x72, 0x74,
  0x65, 0x64, 0x2e, 0x00, 0x01, 0x00, 0x00, 0x00, 0x14, 0x00, 0x00, 0x00,
  0x00, 0x00, 0x0e, 0x00, 0x18, 0x00, 0x14, 0x00, 0x10, 0x00, 0x0c, 0x00,
  0x08, 0x00, 0x04, 0x00, 0x0e, 0x00, 0x00, 0x00, 0x14, 0x00, 0x00, 0x00,
  0x1c, 0x00, 0x00, 0x00, 0x70, 0x01, 0x00, 0x00, 0x74, 0x01, 0x00, 0x00,
  0x78, 0x01, 0x00, 0x00, 0x04, 0x00, 0x00, 0x00, 0x6d, 0x61, 0x69, 0x6e,
  0x00, 0x00, 0x00, 0x00, 0x05, 0x00, 0x00, 0x00, 0x0c, 0x01, 0x00, 0x00,
  0xbc, 0x00, 0x00, 0x00, 0x88, 0x00, 0x00, 0x00, 0x40, 0x00, 0x00, 0x00,
  0x04, 0x00, 0x00, 0x00, 0x92, 0xff, 0xff, 0xff, 0x1c, 0x00, 0x00, 0x00,
  0x00, 0x00, 0x00, 0x09, 0x1c, 0x00, 0x00, 0x00, 0x20, 0x00, 0x00, 0x00,
  0x03, 0x00, 0x00, 0x00, 0x00, 0x00, 0x06, 0x00, 0x08, 0x00, 0x04, 0x00,
  0x06, 0x00, 0x00, 0x00, 0x00, 0x00, 0x80, 0x3f, 0x01, 0x00, 0x00, 0x00,
  0x0c, 0x00, 0x00, 0x00, 0x01, 0x00, 0x00, 0x00, 0x0b, 0x00, 0x00, 0x00,
  0xca, 0xff, 0xff, 0xff, 0x14, 0x00, 0x00, 0x00, 0x00, 0x00, 0x00, 0x08,
  0x10, 0x00, 0x00, 0x00, 0x14, 0x00, 0x00, 0x00, 0x02, 0x00, 0x00, 0x00,
  0x54, 0xf5, 0xff, 0xff, 0x01, 0x00, 0x00, 0x00, 0x0b, 0x00, 0x00, 0x00,
  0x03, 0x00, 0x00, 0x00, 0x0a, 0x00, 0x00, 0x00, 0x06, 0x00, 0x00, 0x00,
  0x07, 0x00, 0x00, 0x00, 0x00, 0x00, 0x0e, 0x00, 0x18, 0x00, 0x14, 0x00,
  0x10, 0x00, 0x0c, 0x00, 0x0b, 0x00, 0x04, 0x00, 0x0e, 0x00, 0x00, 0x00,
  0x14, 0x00, 0x00, 0x00, 0x00, 0x00, 0x00, 0x1b, 0x10, 0x00, 0x00, 0x00,
  0x14, 0x00, 0x00, 0x00, 0x01, 0x00, 0x00, 0x00, 0x98, 0xf5, 0xff, 0xff,
  0x01, 0x00, 0x00, 0x00, 0x0a, 0x00, 0x00, 0x00, 0x02, 0x00, 0x00, 0x00,
  0x09, 0x00, 0x00, 0x00, 0x01, 0x00, 0x00, 0x00, 0xc2, 0xff, 0xff, 0xff,
  0x10, 0x00, 0x00, 0x00, 0x00, 0x00, 0x00, 0x01, 0x18, 0x00, 0x00, 0x00,
  0x1c, 0x00, 0x00, 0x00, 0xb4, 0xff, 0xff, 0xff, 0x00, 0x00, 0x00, 0x01,
  0x02, 0x00, 0x00, 0x00, 0x02, 0x00, 0x00, 0x00, 0x01, 0x00, 0x00, 0x00,
  0x09, 0x00, 0x00, 0x00, 0x03, 0x00, 0x00, 0x00, 0x08, 0x00, 0x00, 0x00,
  0x04, 0x00, 0x00, 0x00, 0x05, 0x00, 0x00, 0x00, 0x00, 0x00, 0x0e, 0x00,
  0x14, 0x00, 0x00, 0x00, 0x10, 0x00, 0x0c, 0x00, 0x0b, 0x00, 0x04, 0x00,
  0x0e, 0x00, 0x00, 0x00, 0x1c, 0x00, 0x00, 0x00, 0x00, 0x00, 0x00, 0x01,
  0x24, 0x00, 0x00, 0x00, 0x28, 0x00, 0x00, 0x00, 0x0c, 0x00, 0x10, 0x00,
  0x00, 0x00, 0x0c, 0x00, 0x08, 0x00, 0x07, 0x00, 0x0c, 0x00, 0x00, 0x00,
  0x00, 0x00, 0x00, 0x01, 0x02, 0x00, 0x00, 0x00, 0x02, 0x00, 0x00, 0x00,
  0x01, 0x00, 0x00, 0x00, 0x08, 0x00, 0x00, 0x00, 0x03, 0x00, 0x00, 0x00,
  0x00, 0x00, 0x00, 0x00, 0x02, 0x00, 0x00, 0x00, 0x03, 0x00, 0x00, 0x00,
  0x01, 0x00, 0x00, 0x00, 0x0c, 0x00, 0x00, 0x00, 0x01, 0x00, 0x00, 0x00,
  0x00, 0x00, 0x00, 0x00, 0x0d, 0x00, 0x00, 0x00, 0x08, 0x0a, 0x00, 0x00,
  0x8c, 0x09, 0x00, 0x00, 0x3c, 0x08, 0x00, 0x00, 0x18, 0x07, 0x00, 0x00,
  0xf4, 0x05, 0x00, 0x00, 0x68, 0x04, 0x00, 0x00, 0x04, 0x04, 0x00, 0x00,
  0x90, 0x03, 0x00, 0x00, 0x8c, 0x02, 0x00, 0x00, 0x78, 0x01, 0x00, 0x00,
  0xf4, 0x00, 0x00, 0x00, 0x70, 0x00, 0x00, 0x00, 0x04, 0x00, 0x00, 0x00,
  0x40, 0xf6, 0xff, 0xff, 0x18, 0x00, 0x00, 0x00, 0x20, 0x00, 0x00, 0x00,
  0x40, 0x00, 0x00, 0x00, 0x0d, 0x00, 0x00, 0x00, 0x00, 0x00, 0x00, 0x09,
  0x44, 0x00, 0x00, 0x00, 0x02, 0x00, 0x00, 0x00, 0xff, 0xff, 0xff, 0xff,
  0x05, 0x00, 0x00, 0x00, 0x24, 0xf6, 0xff, 0xff, 0x08, 0x00, 0x00, 0x00,
  0x14, 0x00, 0x00, 0x00, 0x01, 0x00, 0x00, 0x00, 0x80, 0xff, 0xff, 0xff,
  0xff, 0xff, 0xff, 0xff, 0x00, 0x00, 0x00, 0x00, 0x01, 0x00, 0x00, 0x00,
  0x00, 0x00, 0x80, 0x3b, 0x08, 0x00, 0x00, 0x00, 0x49, 0x64, 0x65, 0x6e,
  0x74, 0x69, 0x74, 0x79, 0x00, 0x00, 0x00, 0x00, 0x02, 0x00, 0x00, 0x00,
  0x01, 0x00, 0x00, 0x00, 0x05, 0x00, 0x00, 0x00, 0xa8, 0xf6, 0xff, 0xff,
  0x18, 0x00, 0x00, 0x00, 0x20, 0x00, 0x00, 0x00, 0x3c, 0x00, 0x00, 0x00,
  0x0c, 0x00, 0x00, 0x00, 0x00, 0x00, 0x00, 0x09, 0x5c, 0x00, 0x00, 0x00,
  0x02, 0x00, 0x00, 0x00, 0xff, 0xff, 0xff, 0xff, 0x05, 0x00, 0x00, 0x00,
  0x8c, 0xf6, 0xff, 0xff, 0x08, 0x00, 0x00, 0x00, 0x10, 0x00, 0x00, 0x00,
  0x01, 0x00, 0x00, 0x00, 0x42, 0x00, 0x00, 0x00, 0x00, 0x00, 0x00, 0x00,
  0x01, 0x00, 0x00, 0x00, 0x70, 0x76, 0x9f, 0x3e, 0x26, 0x00, 0x00, 0x00,
  0x6d, 0x6f, 0x64, 0x65, 0x6c, 0x2f, 0x64, 0x65, 0x6e, 0x73, 0x65, 0x2f,
  0x4d, 0x61, 0x74, 0x4d, 0x75, 0x6c, 0x3b, 0x6d, 0x6f, 0x64, 0x65, 0x6c,
  0x2f, 0x64, 0x65, 0x6e, 0x73, 0x65, 0x2f, 0x42, 0x69, 0x61, 0x73, 0x41,
  0x64, 0x64, 0x00, 0x00, 0x02, 0x00, 0x00, 0x00, 0x01, 0x00, 0x00, 0x00,
  0x05, 0x00, 0x00, 0x00, 0x28, 0xf7, 0xff, 0xff, 0x18, 0x00, 0x00, 0x00,
  0x20, 0x00, 0x00, 0x00, 0x40, 0x00, 0x00, 0x00, 0x0b, 0x00, 0x00, 0x00,
  0x00, 0x00, 0x00, 0x09, 0x5c, 0x00, 0x00, 0x00, 0x02, 0x00, 0x00, 0x00,
  0xff, 0xff, 0xff, 0xff, 0x10, 0x00, 0x00, 0x00, 0x0c, 0xf7, 0xff, 0xff,
  0x08, 0x00, 0x00, 0x00, 0x14, 0x00, 0x00, 0x00, 0x01, 0x00, 0x00, 0x00,
  0x80, 0xff, 0xff, 0xff, 0xff, 0xff, 0xff, 0xff, 0x00, 0x00, 0x00, 0x00,
  0x01, 0x00, 0x00, 0x00, 0xfc, 0x28, 0xb1, 0x3c, 0x23, 0x00, 0x00, 0x00,
  0x6d, 0x6f, 0x64, 0x65, 0x6c, 0x2f, 0x67, 0x6c, 0x6f, 0x62, 0x61, 0x6c,
  0x5f, 0x61, 0x76, 0x65, 0x72, 0x61, 0x67, 0x65, 0x5f, 0x70, 0x6f, 0x6f,
  0x6c, 0x69, 0x6e, 0x67, 0x32, 0x64, 0x2f, 0x4d, 0x65, 0x61, 0x6e, 0x00,
  0x02, 0x00, 0x00, 0x00, 0x01, 0x00, 0x00, 0x00, 0x10, 0x00, 0x00, 0x00,
  0xa8, 0xf7, 0xff, 0xff, 0x18, 0x00, 0x00, 0x00, 0x28, 0x00, 0x00, 0x00,
  0x48, 0x00, 0x00, 0x00, 0x0a, 0x00, 0x00, 0x00, 0x00, 0x00, 0x00, 0x09,
  0xe4, 0x00, 0x00, 0x00, 0x04, 0x00, 0x00, 0x00, 0xff, 0xff, 0xff, 0xff,
  0x08, 0x00, 0x00, 0x00, 0x08, 0x00, 0x00, 0x00, 0x10, 0x00, 0x00, 0x00,
  0x94, 0xf7, 0xff, 0xff, 0x08, 0x00, 0x00, 0x00, 0x14, 0x00, 0x00, 0x00,
  0x01, 0x00, 0x00, 0x00, 0x80, 0xff, 0xff, 0xff, 0xff, 0xff, 0xff, 0xff,
  0x00, 0x00, 0x00, 0x00, 0x01, 0x00, 0x00, 0x00, 0xcd, 0x4b, 0x8a, 0x3d,
  0xa0, 0x00, 0x00, 0x00, 0x6d, 0x6f, 0x64, 0x65, 0x6c, 0x2f, 0x61, 0x63,
  0x74, 0x69, 0x76, 0x61, 0x74, 0x69, 0x6f, 0x6e, 0x5f, 0x31, 0x2f, 0x52,
  0x65, 0x6c, 0x75, 0x3b, 0x6d, 0x6f, 0x64, 0x65, 0x6c, 0x2f, 0x62, 0x61,
  0x74, 0x63, 0x68, 0x5f, 0x6e, 0x6f, 0x72, 0x6d, 0x61, 0x6c, 0x69, 0x7a,
  0x61, 0x74, 0x69, 0x6f, 0x6e, 0x5f, 0x31, 0x2f, 0x46, 0x75, 0x73, 0x65,
  0x64, 0x42, 0x61, 0x74, 0x63, 0x68, 0x4e, 0x6f, 0x72, 0x6d, 0x56, 0x33,
  0x3b, 0x6d, 0x6f, 0x64, 0x65, 0x6c, 0x2f, 0x63, 0x6f, 0x6e, 0x76, 0x32,
  0x64, 0x5f, 0x31, 0x2f, 0x42, 0x69, 0x61, 0x73, 0x41, 0x64, 0x64, 0x2f,
  0x52, 0x65, 0x61, 0x64, 0x56, 0x61, 0x72, 0x69, 0x61, 0x62, 0x6c, 0x65,
  0x4f, 0x70, 0x2f, 0x72, 0x65, 0x73, 0x6f, 0x75, 0x72, 0x63, 0x65, 0x3b,
  0x6d, 0x6f, 0x64, 0x65, 0x6c, 0x2f, 0x63, 0x6f, 0x6e, 0x76, 0x32, 0x64,
  0x5f, 0x31, 0x2f, 0x42, 0x69, 0x61, 0x73, 0x41, 0x64, 0x64, 0x3b, 0x6d,
  0x6f, 0x64, 0x65, 0x6c, 0x2f, 0x63, 0x6f, 0x6e, 0x76, 0x32, 0x64, 0x5f,
  0x31, 0x2f, 0x43, 0x6f, 0x6e, 0x76, 0x32, 0x44, 0x00, 0x00, 0x00, 0x00,
  0x04, 0x00, 0x00, 0x00, 0x01, 0x00, 0x00, 0x00, 0x08, 0x00, 0x00, 0x00,
